{
  "version": "1.0",
  "truncation": null,
  "padding": null,
  "added_tokens": [
    {
      "id": 0,
      "content": "<pad>",
      "single_word": false,
      "lstrip": false,
      "rstrip": false,
      "normalized": false,
      "special": true
    },
    {
      "id": 1,
      "content": "<unk>",
      "single_word": false,
      "lstrip": false,
      "rstrip": false,
      "normalized": false,
      "special": true
    },
    {
      "id": 2,
      "content": "<bos>",
      "single_word": false,
      "lstrip": false,
      "rstrip": false,
      "normalized": false,
      "special": true
    },
    {
      "id": 3,
      "content": "<eos>",
      "single_word": false,
      "lstrip": false,
      "rstrip": false,
      "normalized": false,
      "special": true
    },
    {
      "id": 4,
      "content": "<mask>",
      "single_word": false,
      "lstrip": false,
      "rstrip": false,
      "normalized": false,
      "special": true
    }
  ],
  "normalizer": {
    "type": "NFKC"
  },
  "pre_tokenizer": {
    "type": "ByteLevel",
    "add_prefix_space": false,
    "trim_offsets": true,
    "use_regex": true
  },
  "post_processor": {
    "type": "TemplateProcessing",
    "single": [
      {
        "SpecialToken": {
          "id": "<bos>",
          "type_id": 0
        }
      },
      {
        "Sequence": {
          "id": "A",
          "type_id": 0
        }
      },
      {
        "SpecialToken": {
          "id": "<eos>",
          "type_id": 0
        }
      }
    ],
    "pair": [
      {
        "SpecialToken": {
          "id": "<bos>",
          "type_id": 0
        }
      },
      {
        "Sequence": {
          "id": "A",
          "type_id": 0
        }
      },
      {
        "SpecialToken": {
          "id": "<eos>",
          "type_id": 0
        }
      },
      {
        "SpecialToken": {
          "id": "<bos>",
          "type_id": 0
        }
      },
      {
        "Sequence": {
          "id": "B",
          "type_id": 0
        }
      },
      {
        "SpecialToken": {
          "id": "<eos>",
          "type_id": 0
        }
      }
    ],
    "special_tokens": {
      "<bos>": {
        "id": "<bos>",
        "ids": [
          2
        ],
        "tokens": [
          "<bos>"
        ]
      },
      "<eos>": {
        "id": "<eos>",
        "ids": [
          3
        ],
        "tokens": [
          "<eos>"
        ]
      }
    }
  },
  "decoder": null,
  "model": {
    "type": "BPE",
    "dropout": null,
    "unk_token": "<unk>",
    "continuing_subword_prefix": null,
    "end_of_word_suffix": null,
    "fuse_unk": false,
    "byte_fallback": false,
    "ignore_merges": false,
    "vocab": {
      "<pad>": 0,
      "<unk>": 1,
      "<bos>": 2,
      "<eos>": 3,
      "<mask>": 4,
      "!": 5,
      "\"": 6,
      "#": 7,
      "$": 8,
      "%": 9,
      "&": 10,
      "'": 11,
      "(": 12,
      ")": 13,
      "*": 14,
      "+": 15,
      ",": 16,
      "-": 17,
      ".": 18,
      "/": 19,
      "0": 20,
      "1": 21,
      "2": 22,
      "3": 23,
      "4": 24,
      "5": 25,
      "6": 26,
      "7": 27,
      "8": 28,
      "9": 29,
      ":": 30,
      ";": 31,
      "<": 32,
      "=": 33,
      ">": 34,
      "?": 35,
      "@": 36,
      "A": 37,
      "B": 38,
      "C": 39,
      "D": 40,
      "E": 41,
      "F": 42,
      "G": 43,
      "H": 44,
      "I": 45,
      "J": 46,
      "K": 47,
      "L": 48,
      "M": 49,
      "N": 50,
      "O": 51,
      "P": 52,
      "Q": 53,
      "R": 54,
      "S": 55,
      "T": 56,
      "U": 57,
      "V": 58,
      "W": 59,
      "X": 60,
      "Y": 61,
      "Z": 62,
      "[": 63,
      "\\": 64,
      "]": 65,
      "^": 66,
      "_": 67,
      "`": 68,
      "a": 69,
      "b": 70,
      "c": 71,
      "d": 72,
      "e": 73,
      "f": 74,
      "g": 75,
      "h": 76,
      "i": 77,
      "j": 78,
      "k": 79,
      "l": 80,
      "m": 81,
      "n": 82,
      "o": 83,
      "p": 84,
      "q": 85,
      "r": 86,
      "s": 87,
      "t": 88,
      "u": 89,
      "v": 90,
      "w": 91,
      "x": 92,
      "y": 93,
      "z": 94,
      "{": 95,
      "|": 96,
      "}": 97,
      "~": 98,
      "¡": 99,
      "¢": 100,
      "£": 101,
      "¤": 102,
      "¥": 103,
      "¦": 104,
      "§": 105,
      "¨": 106,
      "©": 107,
      "ª": 108,
      "«": 109,
      "¬": 110,
      "®": 111,
      "¯": 112,
      "°": 113,
      "±": 114,
      "²": 115,
      "³": 116,
      "´": 117,
      "µ": 118,
      "¶": 119,
      "·": 120,
      "¸": 121,
      "¹": 122,
      "º": 123,
      "»": 124,
      "¼": 125,
      "½": 126,
      "¾": 127,
      "¿": 128,
      "À": 129,
      "Á": 130,
      "Â": 131,
      "Ã": 132,
      "Ä": 133,
      "Å": 134,
      "Æ": 135,
      "Ç": 136,
      "È": 137,
      "É": 138,
      "Ê": 139,
      "Ë": 140,
      "Ì": 141,
      "Í": 142,
      "Î": 143,
      "Ï": 144,
      "Ð": 145,
      "Ñ": 146,
      "Ò": 147,
      "Ó": 148,
      "Ô": 149,
      "Õ": 150,
      "Ö": 151,
      "×": 152,
      "Ø": 153,
      "Ù": 154,
      "Ú": 155,
      "Û": 156,
      "Ü": 157,
      "Ý": 158,
      "Þ": 159,
      "ß": 160,
      "à": 161,
      "á": 162,
      "â": 163,
      "ã": 164,
      "ä": 165,
      "å": 166,
      "æ": 167,
      "ç": 168,
      "è": 169,
      "é": 170,
      "ê": 171,
      "ë": 172,
      "ì": 173,
      "í": 174,
      "î": 175,
      "ï": 176,
      "ð": 177,
      "ñ": 178,
      "ò": 179,
      "ó": 180,
      "ô": 181,
      "õ": 182,
      "ö": 183,
      "÷": 184,
      "ø": 185,
      "ù": 186,
      "ú": 187,
      "û": 188,
      "ü": 189,
      "ý": 190,
      "þ": 191,
      "ÿ": 192,
      "Ā": 193,
      "ā": 194,
      "Ă": 195,
      "ă": 196,
      "Ą": 197,
      "ą": 198,
      "Ć": 199,
      "ć": 200,
      "Ĉ": 201,
      "ĉ": 202,
      "Ċ": 203,
      "ċ": 204,
      "Č": 205,
      "č": 206,
      "Ď": 207,
      "ď": 208,
      "Đ": 209,
      "đ": 210,
      "Ē": 211,
      "ē": 212,
      "Ĕ": 213,
      "ĕ": 214,
      "Ė": 215,
      "ė": 216,
      "Ę": 217,
      "ę": 218,
      "Ě": 219,
      "ě": 220,
      "Ĝ": 221,
      "ĝ": 222,
      "Ğ": 223,
      "ğ": 224,
      "Ġ": 225,
      "ġ": 226,
      "Ģ": 227,
      "ģ": 228,
      "Ĥ": 229,
      "ĥ": 230,
      "Ħ": 231,
      "ħ": 232,
      "Ĩ": 233,
      "ĩ": 234,
      "Ī": 235,
      "ī": 236,
      "Ĭ": 237,
      "ĭ": 238,
      "Į": 239,
      "į": 240,
      "İ": 241,
      "ı": 242,
      "Ĳ": 243,
      "ĳ": 244,
      "Ĵ": 245,
      "ĵ": 246,
      "Ķ": 247,
      "ķ": 248,
      "ĸ": 249,
      "Ĺ": 250,
      "ĺ": 251,
      "Ļ": 252,
      "ļ": 253,
      "Ľ": 254,
      "ľ": 255,
      "Ŀ": 256,
      "ŀ": 257,
      "Ł": 258,
      "ł": 259,
      "Ń": 260,
      "ãģ": 261,
      "ãĤ": 262,
      "ãĥ": 263,
      "os": 264,
      "ãĢ": 265,
      "><": 266,
      "ãģĦ": 267,
      "eos": 268,
      "bos": 269,
      "ãģ®": 270,
      "ãģ¦": 271,
      "ãģĹ": 272,
      "on": 273,
      "ãģª": 274,
      "en": 275,
      "ti": 276,
      "tion": 277,
      "men": 278,
      "mention": 279,
      "ãģ§": 280,
      "ãģŁ": 281,
      "..": 282,
      "ãģ«": 283,
      "ãģ£": 284,
      "ãģĻ": 285,
      "ãģ¨": 286,
      "ãĥ¼": 287,
      "et": 288,
      "ãĤĭ": 289,
      "ãģĭ": 290,
      "ãģ¾": 291,
      "ãģĮ": 292,
      "ãģ¯": 293,
      "ãĤĵ": 294,
      "ãĢģ": 295,
      "Ġ<": 296,
      "ãģĨ": 297,
      "ãĤī": 298,
      "ur": 299,
      "url": 300,
      "ãĢĤ": 301,
      "ðŁ": 302,
      "ãĤĤ": 303,
      "ãĥ³": 304,
      "ãĤĴ": 305,
      "ãĤĬ": 306,
      "ãĤĮ": 307,
      "ãģı": 308,
      "ãģĬ": 309,
      "we": 310,
      "ãģł": 311,
      "weet": 312,
      "ret": 313,
      "retweet": 314,
      ">:": 315,
      "ä¸": 316,
      "ãģĵ": 317,
      "ãĤĪ": 318,
      "ãģ£ãģ¦": 319,
      "ãģĤ": 320,
      "ãģķ": 321,
      "äº": 322,
      "...": 323,
      "ãĤ¤": 324,
      "Ġ#": 325,
      "ãģį": 326,
      "ãĤ¹": 327,
      "æľ": 328,
      "ãģĳ": 329,
      "ãĥĪ": 330,
      "æĹ": 331,
      "ãģ¾ãģĻ": 332,
      "!!": 333,
      "ãģ¡": 334,
      "å¤": 335,
      "ä»": 336,
      "ãģ§ãģĻ": 337,
      "æĹ¥": 338,
      "ãģ£ãģŁ": 339,
      "ãģĹãģ¦": 340,
      "ãģĹãģŁ": 341,
      "ãģªãģĦ": 342,
      "çĶ": 343,
      "ãĤĦ": 344,
      "ãĥ¼ãĥ": 345,
      "åħ": 346,
      "ä½": 347,
      "ãģĿ": 348,
      "ãĥ©": 349,
      "åĪ": 350,
      "ãģ©": 351,
      "ãģĭãĤī": 352,
      "å®": 353,
      "ãĥĥ": 354,
      "ãģĪ": 355,
      "ãĥª": 356,
      "ãĤ¢": 357,
      "ãģŃ": 358,
      "ãĤ¯": 359,
      "ãĤĥ": 360,
      "ãģ¿": 361,
      "ãĥ«": 362,
      "åı": 363,
      "æĸ": 364,
      "ãĢĮ": 365,
      "ãĤı": 366,
      "ãĤģ": 367,
      "ãĢį": 368,
      "äºº": 369,
      "è¦": 370,
      "ãģĶ": 371,
      "åĲ": 372,
      "Ġãĥ": 373,
      "éĸ": 374,
      "éģ": 375,
      "è¨": 376,
      "æĢ": 377,
      "ãĤ¿": 378,
      "ãģ¤": 379,
      "ãĥŃ": 380,
      "ãģķãĤĵ": 381,
      "ãģ®å": 382,
      "...<": 383,
      "éĢ": 384,
      "ãĥ¬": 385,
      "æ°": 386,
      "Ġå": 387,
      "ãĤ³": 388,
      "ãĤį": 389,
      "ãĤ«": 390,
      "ãģĽ": 391,
      "ãĥ³ãĥ": 392,
      "çµ": 393,
      "Ġæ": 394,
      "ãģĦãģ¾ãģĻ": 395,
      "ä»Ĭ": 396,
      "ãĤ·": 397,
      "ãĤĪãģĨ": 398,
      "ãģĺ": 399,
      "åĭ": 400,
      "ãĥķ": 401,
      "ĠãģĬ": 402,
      "èª": 403,
      "ãĥ»": 404,
      "ãģ¾ãģĹãģŁ": 405,
      "æĻ": 406,
      "ãģ¡ãĤĥ": 407,
      "ðŁĺ": 408,
      "è¡": 409,
      "ï¸": 410,
      "åĽ": 411,
      "ãģĻãĤĭ": 412,
      "æĦ": 413,
      "ãĥŀ": 414,
      "ä¼": 415,
      "ãģĸ": 416,
      "ãĤŃ": 417,
      "åĩ": 418,
      "ãĤ¸": 419,
      "ãĥĹ": 420,
      "Ġç": 421,
      "ãģĤãĤĬ": 422,
      "ï¸ı": 423,
      "å¤§": 424,
      "å¹": 425,
      "è¦ĭ": 426,
      "ãĥ£": 427,
      "å¼": 428,
      "ãģĳãģ©": 429,
      "æľ¬": 430,
      "ãĢĤ<": 431,
      "éĽ": 432,
      "åŃ": 433,
      "ãģĶãģĸ": 434,
      "....": 435,
      "æķ": 436,
      "æī": 437,
      "æĿ": 438,
      "ãģĹãģĦ": 439,
      "Ġâ": 440,
      "æĻĤ": 441,
      "ãģ®ãģ§": 442,
      "æĢĿ": 443,
      "åĪĨ": 444,
      "çĽ": 445,
      "ãģ«ãģª": 446,
      "åĩº": 447,
      "å¿": 448,
      "ä¸Ģ": 449,
      "ãĥ¡": 450,
      "æŃ": 451,
      "å¾": 452,
      "ãĥģ": 453,
      "æ°Ĺ": 454,
      "ãģĵãģ¨": 455,
      "ä¸Ń": 456,
      "ãģ°": 457,
      "¥½": 458,
      "ãģĦãģŁ": 459,
      "èĩ": 460,
      "æĺ": 461,
      "çĶŁ": 462,
      "åĬ": 463,
      "ľ¨": 464,
      "ãģĶãģĸãģĦãģ¾ãģĻ": 465,
      "ãĥĲ": 466,
      "çĻ": 467,
      "ãĤª": 468,
      "ãģªãĤĵ": 469,
      "ä¿": 470,
      "!<": 471,
      "åī": 472,
      "æĸ¹": 473,
      "éĸĵ": 474,
      "åº": 475,
      "ãģĦãģĦ": 476,
      "å½": 477,
      "ãĤ°": 478,
      "äºĭ": 479,
      "è¨Ģ": 480,
      "ãĤ¤ãĥ": 481,
      "è©": 482,
      "èĢ": 483,
      "æĽ": 484,
      "åĳ": 485,
      "ãģ¨ãģĨ": 486,
      "er": 487,
      "å¯": 488,
      "ãģĤãĤĭ": 489,
      "å¹´": 490,
      "éĩ": 491,
      "é¡": 492,
      "ãĤ¦": 493,
      "ãĥķãĤ": 494,
      "èī": 495,
      "ãĤĵãģª": 496,
      "åĨ": 497,
      "è²": 498,
      "ãģĿãģĨ": 499,
      "èĩª": 500,
      "ç´": 501,
      "ãĤĮãģ¦": 502,
      "çĦ": 503,
      "ãģĦãģ¦": 504,
      "ä½ľ": 505,
      "é£": 506,
      "ãĢľ": 507,
      "ãģĦãģĨ": 508,
      "ãĢĲ": 509,
      "ãĤµ": 510,
      "æĪ": 511,
      "ðŁĴ": 512,
      "ãĢĳ": 513,
      "è¡Į": 514,
      "ãģĦãĤĭ": 515,
      "âľ¨": 516,
      "ãĥĭ": 517,
      "éł": 518,
      "ãģŁãģĦ": 519,
      "å±": 520,
      "Ġãģĵ": 521,
      "åł": 522,
      "ãģĭãģ£ãģŁ": 523,
      "ĠÌ": 524,
      "ãģĤãĤĬãģĮ": 525,
      "è¿": 526,
      "å¸": 527,
      "ãģ®æ": 528,
      "ä¸Ĭ": 529,
      "00": 530,
      "ãĤĵãģł": 531,
      "ãĤĮãĤĭ": 532,
      "çī": 533,
      "ãĤĩ": 534,
      "ãĥ¼ãĥĪ": 535,
      "in": 536,
      "è³": 537,
      "ãĥĨ": 538,
      "å°": 539,
      "æľĢ": 540,
      "ĠãģĬãģ¯": 541,
      "ðŁİ": 542,
      "ãģ§ãĤĤ": 543,
      "ãģļ": 544,
      "æ§": 545,
      "çļ": 546,
      "ãĤ¨": 547,
      "åį": 548,
      "çĶ»": 549,
      "âĢ": 550,
      "ãģĹãģ¾ãģĻ": 551,
      "ãģ¨æĢĿ": 552,
      "åīį": 553,
      "!!!!": 554,
      "ãĥĩ": 555,
      "æľĪ": 556,
      "ãģ¨ãģĭ": 557,
      "ãģĤãĤĬãģĮãģ¨ãģĨ": 558,
      "ãĥ¥": 559,
      "æĦŁ": 560,
      "ãģİ": 561,
      "ä¼ļ": 562,
      "ãģ¡ãĤĥãĤĵ": 563,
      "çŁ": 564,
      "ãĤĴæ": 565,
      "ãĤĮãģŁ": 566,
      "ãĥī": 567,
      "ãĥ³ãĥĪ": 568,
      "çķ": 569,
      "ãĥĦ": 570,
      "åħ¥": 571,
      "æĸ°": 572,
      "å£": 573,
      "ww": 574,
      "ãģ»": 575,
      "æ³": 576,
      "æīĭ": 577,
      "ãĥŁ": 578,
      "æĿ¥": 579,
      "éĿ": 580,
      "ä»ĬæĹ¥": 581,
      "ãĤ£": 582,
      ")<": 583,
      "ç§": 584,
      "éħ": 585,
      "éĻ": 586,
      "åĭķ": 587,
      "ãģģ": 588,
      "åħ¨": 589,
      "ãĤº": 590,
      "ãĤ¹ãĥĪ": 591,
      "ãĥĸ": 592,
      "å®ļ": 593,
      "åķ": 594,
      "éĸĭ": 595,
      "åĲį": 596,
      "ãĥĬ": 597,
      "ä½ķ": 598,
      "ãģķãģĦ": 599,
      "ãĥ¢": 600,
      "ãĥĳ": 601,
      "ãģ§ãģį": 602,
      "ãģĭãģª": 603,
      "ãģĺãĤĥ": 604,
      "ç·": 605,
      "çĦ¡": 606,
      "éĥ": 607,
      "å½ĵ": 608,
      "æ§ĺ": 609,
      "ãģ£ãģ¦ãĤĭ": 610,
      "åĮ": 611,
      "âĻ": 612,
      "ãĥ¯": 613,
      "Ġt": 614,
      "åĽŀ": 615,
      "ãģ¾ãģ§": 616,
      "ãĤ¬": 617,
      "æĬ": 618,
      "åĲĪ": 619,
      "èĢħ": 620,
      "æı": 621,
      "æĮ": 622,
      "èī¯": 623,
      "ãģłãģĳ": 624,
      "20": 625,
      "ãģ¹": 626,
      "èģ": 627,
      "ãģ¨ãģĦãģĨ": 628,
      "ç¥": 629,
      "è©±": 630,
      "ãģĹãģı": 631,
      "âĺ": 632,
      "çĽ®": 633,
      "ãģªãģı": 634,
      "åľ": 635,
      "çĲ": 636,
      "ãĥĥãĥĪ": 637,
      "Ġ1": 638,
      "çľ": 639,
      "é«": 640,
      "å¥": 641,
      "åķı": 642,
      "åŃĲ": 643,
      "ç¬": 644,
      "çĻº": 645,
      "ãĤ±": 646,
      "ãģĴ": 647,
      "çļĦ": 648,
      "è»": 649,
      "ĠãĢĮ": 650,
      "ãĥĥãĤ¯": 651,
      "ãģ£ãģ¨": 652,
      "?<": 653,
      "ãĥł": 654,
      "ĠãĢĲ": 655,
      "åĵ": 656,
      "çŁ¥": 657,
      "ãĥ§": 658,
      "ãĥ¼ãĥ«": 659,
      "ãģĵãĤĮ": 660,
      "å·": 661,
      "ç¨": 662,
      "ãĤ»": 663,
      "æĶ": 664,
      "ãĤĵãģ§": 665,
      "ãģĿãĤĮ": 666,
      "an": 667,
      "ä¿¡": 668,
      "ĠðŁ": 669,
      "......": 670,
      "é«ĺ": 671,
      "ãģĪãģ¦": 672,
      "ãģĬãģ¯": 673,
      "ãĥľ": 674,
      "çĲĨ": 675,
      "æĢ§": 676,
      "ç¤": 677,
      "ãĢİ": 678,
      "ä¹": 679,
      "ä½¿": 680,
      "å¥½": 681,
      "æĥ": 682,
      "at": 683,
      "ä½ĵ": 684,
      "ãģ®ãģ¯": 685,
      "ãĥİ": 686,
      "ä¾": 687,
      "æķ°": 688,
      "æ¥½": 689,
      "it": 690,
      "å®Ł": 691,
      "ãĢı": 692,
      "ãĤ¿ãĥ¼": 693,
      "èŃ": 694,
      "ãģĤãģĤ": 695,
      "ãĤĪãģĨãģĶãģĸãģĦãģ¾ãģĻ": 696,
      "âĿ": 697,
      "ãĤ²": 698,
      "ãģ«ãģ¯": 699,
      "é£Ł": 700,
      "éħį": 701,
      "ãĥı": 702,
      "åĢ": 703,
      "ãģıãģł": 704,
      "å¾Į": 705,
      "ãĤĪãĤĬ": 706,
      "ãģĻãģİ": 707,
      "ãģ§ãģĻãģŃ": 708,
      "ĠÌģ": 709,
      "æµ": 710,
      "åŃ¦": 711,
      "è³ª": 712,
      "ðŁ¤": 713,
      "©ãĥŃ": 714,
      "çĶ¨": 715,
      "ãģ§ãģ¯": 716,
      "Ġ(": 717,
      "åĽ½": 718,
      "or": 719,
      "ãĥĿ": 720,
      "ãģłãģ£ãģŁ": 721,
      "è§": 722,
      "åł´": 723,
      "ãĤŃãĥ£": 724,
      "ãģĹãĤĩ": 725,
      "åº¦": 726,
      "ãĥį": 727,
      "Ïī": 728,
      "ãĥĵ": 729,
      "è£": 730,
      "æ¯": 731,
      "éļ": 732,
      "ãĤĬãģ¾ãģĻ": 733,
      "ãģ¶": 734,
      "ãģĹãģ¾": 735,
      "ãģªãĤī": 736,
      "ãģ©ãģĨ": 737,
      "è¶": 738,
      "æİ": 739,
      "ãģĵãģ®": 740,
      "ç«": 741,
      "å§": 742,
      "ãĥĢ": 743,
      "ãģĤãĤĬãģĮãģ¨ãģĨãģĶãģĸãģĦãģ¾ãģĻ": 744,
      "æ¬": 745,
      "ðŁĮ": 746,
      "ãģ®ãģĭ": 747,
      "éĥ¨": 748,
      "åĳ³": 749,
      "ãģĪãĤĭ": 750,
      "ãĤĢ": 751,
      "ãĥ¼ãĥł": 752,
      "éĢļ": 753,
      "è¾": 754,
      "ãĥ¼ãĥ¼": 755,
      "å¤ī": 756,
      "åĪĿ": 757,
      "âĶ": 758,
      "æ¥": 759,
      "éĽĨ": 760,
      "æ´": 761,
      "ä¸ĭ": 762,
      "ãĤ½": 763,
      "ç¾": 764,
      "æ¸": 765,
      "ðŁ¥": 766,
      "ãĤĪãģŃ": 767,
      "ãģ²": 768,
      "å¯¾": 769,
      "ãĤ¤ãĥ³": 770,
      "ãģ³": 771,
      "åĬĽ": 772,
      "å¥½ãģį": 773,
      "èĩªåĪĨ": 774,
      "å¤ĸ": 775,
      "ar": 776,
      "çŃ": 777,
      "ãĥ¼ãĥī": 778,
      "æŀ": 779,
      "éŁ": 780,
      "èĥ": 781,
      "ĠãģĤ": 782,
      "ãĥ¼ãĤ¹": 783,
      "ãĢħ": 784,
      "ãģ¾ãģĽ": 785,
      "é¡ĺ": 786,
      "æĺİ": 787,
      "éĩĳ": 788,
      "èµ": 789,
      "çī©": 790,
      "æĦı": 791,
      "ãģıãģłãģķãģĦ": 792,
      "ãģĹãģĭ": 793,
      "ãģĹãģ¾ãģĹãģŁ": 794,
      "å¤ļ": 795,
      "åĬł": 796,
      "æ±": 797,
      "ãĤģãģ¦": 798,
      "ç¬ĳ": 799,
      "æł": 800,
      "ãĤīãģĦ": 801,
      "æĤ": 802,
      "åĥ": 803,
      "åı¯": 804,
      "ãĥ»ãĥ»": 805,
      "ãģ£ãģ": 806,
      "éģ¸": 807,
      "??": 808,
      "ãĥĦãĤ¤": 809,
      "æĹ¥æľ¬": 810,
      "åħĪ": 811,
      "ðŁį": 812,
      "æ®": 813,
      "åħ¬": 814,
      "ç¶": 815,
      "éĿ¢": 816,
      "è³ªåķı": 817,
      "ãģĿãģ®": 818,
      "ãĥ³ãĤ°": 819,
      "ãĤĮãģ°": 820,
      "ãĤ®": 821,
      "ãģ¸": 822,
      "åĭŁ": 823,
      "ĠâĹ": 824,
      "ou": 825,
      "ãĤ§": 826,
      "ãģĳãģ¦": 827,
      "åĲĮ": 828,
      "ãģ¿ãģŁãģĦ": 829,
      "é¡ĺãģĦ": 830,
      "ðŁĻ": 831,
      "æĻĤéĸĵ": 832,
      "åİ": 833,
      "ãģĹãģ¦ãĤĭ": 834,
      "Ġ2": 835,
      "ãģĲ": 836,
      "ç§ģ": 837,
      "ãģŁãĤī": 838,
      "ç©": 839,
      "è¨ĺ": 840,
      "çµĲ": 841,
      "è§£": 842,
      "he": 843,
      "Ġä»Ĭ": 844,
      "ãĥķãĤ©ãĥŃ": 845,
      "ı¾": 846,
      "ä¸ĸ": 847,
      "æ¥Ń": 848,
      "ðŁĳ": 849,
      "ãģĬé¡ĺãģĦ": 850,
      "ãĤĤãģĨ": 851,
      "ãģªãĤĭ": 852,
      "ðŁĲ": 853,
      "ãĤ·ãĥ§": 854,
      "å¥³": 855,
      "åł±": 856,
      "ãĤįãģĨ": 857,
      "åıĸ": 858,
      "RT": 859,
      "ãĥĶ": 860,
      "å¼µ": 861,
      "å¿ľ": 862,
      "åĤ": 863,
      "æĽ¸": 864,
      "ä¸į": 865,
      "æĪ¦": 866,
      "æ³ķ": 867,
      "è¿ĳ": 868,
      "çµĤ": 869,
      "Ġãĥ»": 870,
      "å®¶": 871,
      "åıĤ": 872,
      "çĤ": 873,
      "ãĥĽ": 874,
      "è«": 875,
      "ãģľ": 876,
      "ä»ķ": 877,
      "æľŁ": 878,
      "éħįä¿¡": 879,
      "ãģ«ãģªãĤĭ": 880,
      "ãģ®ãģ«": 881,
      "åĮĸ": 882,
      "ãĥĥãĥĹ": 883,
      "æ²": 884,
      "ĠãģĬãģ¯ãĤĪãģĨãģĶãģĸãģĦãģ¾ãģĻ": 885,
      "es": 886,
      "Ġãģ¾": 887,
      "ãģĽãģ¦": 888,
      "åľ°": 889,
      "æĪĲ": 890,
      "å¼·": 891,
      "ãģŀ": 892,
      "ãĥĹãĥ¬": 893,
      "ub": 894,
      "ãĥ¼ãĥ³": 895,
      "è²·": 896,
      "å£²": 897,
      "ä»ĺ": 898,
      "æĦĽ": 899,
      "ä»£": 900,
      "Ġä»ĬæĹ¥": 901,
      "Ġs": 902,
      "ãĤĨ": 903,
      "ç¤¾": 904,
      "åĪĩ": 905,
      "ãĤĪãĤį": 906,
      "ãĥģãĥ£": 907,
      "ãģµ": 908,
      "is": 909,
      "ãģĹãĤĩãģĨ": 910,
      "èĪ": 911,
      "ãģ¾ãģĽãĤĵ": 912,
      "ãģĦãģ¤": 913,
      "æĮģ": 914,
      "ãĤ´": 915,
      "202": 916,
      "ãģįãģŁ": 917,
      "ãĤĤãģ®": 918,
      "ãĤ¼": 919,
      "ķ·": 920,
      "éķ·": 921,
      "éģķ": 922,
      "ãĥĻ": 923,
      "ãģ§ãģĻãģĮ": 924,
      "10": 925,
      "ä»¥": 926,
      "ĠT": 927,
      "ãĤ¹ãĤ¿": 928,
      "âĹ": 929,
      "çı¾": 930,
      "éŁ³": 931,
      "ãģ¿ãĤĵãģª": 932,
      "äºĪ": 933,
      "!!!": 934,
      "æĦŁãģĺ": 935,
      "ãģĩ": 936,
      "ãĥ¼ãĤ¸": 937,
      "èĤ": 938,
      "ãĥĦãĤ¤ãĥ¼ãĥĪ": 939,
      "ãģ¨ãģĹãģ¦": 940,
      "å§ĭ": 941,
      "æ©": 942,
      "al": 943,
      "èģŀ": 944,
      "ãģ¡ãĤĩ": 945,
      "æĽ²": 946,
      "åĵģ": 947,
      "èĥ½": 948,
      "èī¯ãģĦ": 949,
      "çķĮ": 950,
      "am": 951,
      "èī²": 952,
      "ãģ£ãģ¡ãĤĥ": 953,
      "ãĤ¶": 954,
      "ãģªãģĭãģ£ãģŁ": 955,
      "ãĤĮãģªãģĦ": 956,
      "ãģªãģ®ãģ§": 957,
      "èĢĥ": 958,
      "ãģłãģĭãĤī": 959,
      "ãĤĪãĤįãģĹãģı": 960,
      "çľŁ": 961,
      "éĸ¢": 962,
      "ç¥ŀ": 963,
      "ĠS": 964,
      "ĠãģĵãĤĮ": 965,
      "ãĤĭãģ¨": 966,
      "ĠâĹı": 967,
      "è¦ĭãģ¦": 968,
      "æ°´": 969,
      "çĿ": 970,
      "æīĢ": 971,
      "ãģĦãģ¾ãģĹãģŁ": 972,
      "ãĥ³ãĥī": 973,
      "åĨħ": 974,
      "ing": 975,
      "æ¼": 976,
      "ãģ®ãģĬ": 977,
      "é¡Į": 978,
      "ãĥļ": 979,
      "è¡¨": 980,
      "éģİ": 981,
      "ãģ«ãĤĤ": 982,
      "å¿ĥ": 983,
      "ç®": 984,
      "æĴ": 985,
      "ãģ§ãģĹãģŁ": 986,
      "è¦ģ": 987,
      "çĹ": 988,
      "Ġh": 989,
      "çĸ": 990,
      "ãģ£ãģŁãĤī": 991,
      "Ġæĺ": 992,
      "æĭ": 993,
      "ãĥªãĥ¼": 994,
      "æĸĩ": 995,
      "ãģķãĤĮãģ¦": 996,
      "éĢ£": 997,
      "ãĤĦãģĻ": 998,
      "ãģĮãģĤãĤĭ": 999,
      "ãģ§ãģĻãģĭ": 1000,
      "æ¨": 1001,
      "éĢģ": 1002,
      "çķª": 1003,
      "åħĥ": 1004,
      "èĭ": 1005,
      "ãģ¡ãĤī": 1006,
      "ãģ®ãģĮ": 1007,
      "ç«ĭ": 1008,
      "é£Łãģ¹": 1009,
      "çİ": 1010,
      "çĬ": 1011,
      "(*": 1012,
      "ãĤģãģ§": 1013,
      "èº": 1014,
      "âĨ": 1015,
      "ãĥ©ãĤ¤": 1016,
      "ï¸ı<": 1017,
      "çµµ": 1018,
      "éłĳ": 1019,
      "å°ĳ": 1020,
      "ãĥķãĤ©ãĥŃãĥ¼": 1021,
      "æ©Ł": 1022,
      "åĨĨ": 1023,
      "å®ī": 1024,
      "ĠãģĿ": 1025,
      "âĻª": 1026,
      "ç½": 1027,
      "¢º": 1028,
      "éłĳå¼µ": 1029,
      "ter": 1030,
      "æķĻ": 1031,
      "å¢": 1032,
      "ãģĳãĤĭ": 1033,
      "wit": 1034,
      "åĸ": 1035,
      "âĶģ": 1036,
      "å¤ľ": 1037,
      "èªŀ": 1038,
      "åĦ": 1039,
      "ãģ§ãģįãĤĭ": 1040,
      "ãĤīãģªãģĦ": 1041,
      "è¼": 1042,
      "éŃ": 1043,
      "ãĥ¤": 1044,
      "ãĥ©ãĤ¤ãĥ": 1045,
      "ãģ«ãģªãģ£ãģ¦": 1046,
      "ĠA": 1047,
      "çĶ°": 1048,
      "ãĢģãĢģ": 1049,
      "ãģķãĤĮãģŁ": 1050,
      "ç¶ļ": 1051,
      "æŃ£": 1052,
      "åģ": 1053,
      "!!<": 1054,
      "Ġa": 1055,
      "åıĤåĬł": 1056,
      "ãĤĬãģ¾ãģĹãģŁ": 1057,
      "ãģªãĤĵãģł": 1058,
      "èªŃ": 1059,
      "ãĥ³ãĤ¹": 1060,
      "ãģĭãĤĤ": 1061,
      "ãģĺãĤĥãģªãģĦ": 1062,
      "Ġb": 1063,
      "å¾ħ": 1064,
      "é¦": 1065,
      "æº": 1066,
      "æĸĻ": 1067,
      "ðŁĺŃ": 1068,
      "âĪ": 1069,
      "ãģ¨ãģĵ": 1070,
      "ä¸ĩ": 1071,
      "çĻ½": 1072,
      "æ¥½ãģĹ": 1073,
      "ãĤĦãģ£ãģ¦": 1074,
      "åĵ¡": 1075,
      "ðŁĺĬ": 1076,
      "Ġf": 1077,
      "éĽ»": 1078,
      "ãĤĪãģĨãģ«": 1079,
      "æŃĮ": 1080,
      "ãģ£ãģ±": 1081,
      "éĻĲ": 1082,
      "è»Ĭ": 1083,
      "Ġm": 1084,
      "ãĤ²ãĥ¼ãĥł": 1085,
      "å¤©": 1086,
      "!?": 1087,
      "è¬": 1088,
      "ãģ¨æĢĿãģĨ": 1089,
      "ãģĭãĤı": 1090,
      "ãģĵãģĨ": 1091,
      "ãģıãĤīãģĦ": 1092,
      "è¾¼": 1093,
      "ãģ¼": 1094,
      "ch": 1095,
      "ãģ®æĸ¹": 1096,
      "ç¾İ": 1097,
      "re": 1098,
      "æĥħ": 1099,
      "æ´»": 1100,
      "èĳ": 1101,
      "¢¨": 1102,
      "ãģĬé¡ĺãģĦãģĹãģ¾ãģĻ": 1103,
      "çĿĢ": 1104,
      "ä»ķäºĭ": 1105,
      "çĽ¸": 1106,
      "éģĶ": 1107,
      "VR": 1108,
      "Ġ3": 1109,
      "åıĹ": 1110,
      "ãģĭãĤĬ": 1111,
      "éĢ±": 1112,
      "ä¸»": 1113,
      "æĤª": 1114,
      "le": 1115,
      "ĠãĤ¢": 1116,
      "ãģªãģģ": 1117,
      "éģĵ": 1118,
      "Ġ)": 1119,
      "èĬ": 1120,
      "æŁ": 1121,
      "ãģįãģ¾ãģĻ": 1122,
      "ãģŁãĤģ": 1123,
      "Ġãĥķ": 1124,
      "åŁ": 1125,
      "ç¢º": 1126,
      "æħ": 1127,
      "èº«": 1128,
      "å¿µ": 1129,
      "èĲ": 1130,
      "ãĥķãĤ¡": 1131,
      "ãģ®äºº": 1132,
      "ãģĬãģĬ": 1133,
      "å¯Ŀ": 1134,
      "å±±": 1135,
      "ãģ¦ãĤĤ": 1136,
      "ãĤģãģ§ãģ¨ãģĨ": 1137,
      "Ġthe": 1138,
      "ãĥªãĤ¢": 1139,
      "èµ·": 1140,
      "âĺĢ": 1141,
      "æ°ĳ": 1142,
      "ãģ¨ãģ¯": 1143,
      "ãĥĨãĤ£": 1144,
      "è±": 1145,
      "ç´ł": 1146,
      "åĭŁéĽĨ": 1147,
      "æ±º": 1148,
      "åĪ¥": 1149,
      "å°ı": 1150,
      "ãģĦãģŁãģł": 1151,
      "ðŁİī": 1152,
      "çł": 1153,
      ">#": 1154,
      "æıı": 1155,
      "é¢¨": 1156,
      "ãĤļ": 1157,
      "ãĤ¤ãĥĪ": 1158,
      "æľĿ": 1159,
      "æľ¬å½ĵ": 1160,
      "å¼ķ": 1161,
      "ãģªãģ®": 1162,
      "ãģįãģ¾ãģĹãģŁ": 1163,
      "èª¿": 1164,
      "ãģķãĤĵãģ®": 1165,
      "æĹ©": 1166,
      "é¨": 1167,
      "åĭĿ": 1168,
      "æľī": 1169,
      "åĲĳ": 1170,
      "éĩİ": 1171,
      "oo": 1172,
      "æļ": 1173,
      "ãģªãģ©": 1174,
      "hat": 1175,
      "âĶģâĶģ": 1176,
      "ãģ¾ãģł": 1177,
      "ãĤ¡": 1178,
      "çī¹": 1179,
      "ãģªãģĮ": 1180,
      "ãģıãģª": 1181,
      "æľ¬æĹ¥": 1182,
      "æ¬²": 1183,
      "as": 1184,
      "ä¿º": 1185,
      "¬ī": 1186,
      "ĠC": 1187,
      "ãģıãĤĭ": 1188,
      "Ġo": 1189,
      "çĶ·": 1190,
      "ãĤ·ãĥ§ãĥ³": 1191,
      "Ġc": 1192,
      "ä¼ĳ": 1193,
      "ãģĹãģªãģĦ": 1194,
      "ãģªãĤĵãģĭ": 1195,
      "ay": 1196,
      "çĸ²": 1197,
      "çĽ´": 1198,
      "åŀ": 1199,
      "ãĤ·ãĥ£": 1200,
      "ä¸ĸçķĮ": 1201,
      "ãģįãģ¦": 1202,
      "æĥ³": 1203,
      "åĭķçĶ»": 1204,
      "æŀľ": 1205,
      "åĩºæĿ¥": 1206,
      "æŃ»": 1207,
      "ŃĲ": 1208,
      "ãģĹãģ¦ãģĦãĤĭ": 1209,
      "İæĹ¥": 1210,
      "âľ¨<": 1211,
      "ãģ£ãģ¡": 1212,
      "å®Į": 1213,
      "ĠãģĤãĤĬãģĮãģ¨ãģĨãģĶãģĸãģĦãģ¾ãģĻ": 1214,
      "èĲ½": 1215,
      "ãģ¾ãģŁ": 1216,
      "çĤ¹": 1217,
      "éĩį": 1218,
      "åı¯æĦĽ": 1219,
      "Ġ/": 1220,
      "ãĤ¼ãĥ³ãĥĪ": 1221,
      "ĠãģĦ": 1222,
      "ĠI": 1223,
      "ç¨¿": 1224,
      "ãĤĪãģı": 1225,
      "åĥı": 1226,
      "å±ĭ": 1227,
      "èª¬": 1228,
      "*)": 1229,
      "Ġp": 1230,
      "âĢį": 1231,
      "100": 1232,
      "Ġç§": 1233,
      "ãģĹãģŁãĤī": 1234,
      "çµĤãĤı": 1235,
      "!!ï¸ı": 1236,
      "âĸ": 1237,
      "æĶ¾": 1238,
      "æĬķ": 1239,
      "ãģĻãģĶ": 1240,
      "ãģ£ãģ¦ãģŁ": 1241,
      "ĠM": 1242,
      "ãģ¨è¨Ģ": 1243,
      "ðŁĴķ": 1244,
      "æģ": 1245,
      "ãģ«è¡Į": 1246,
      "ç³": 1247,
      "ãģĤãģĤãģĤãģĤ": 1248,
      "èªį": 1249,
      "ãĤĦãģ¤": 1250,
      "æ¯Ķ": 1251,
      "åĴ": 1252,
      "èªķ": 1253,
      "uber": 1254,
      "âł": 1255,
      "åºĹ": 1256,
      "ãĤĬãģŁãģĦ": 1257,
      "ãĤĵãģłãģĳãģ©": 1258,
      "ãģ¡ãĤĩãģ£ãģ¨": 1259,
      "åĪ¶": 1260,
      "ãĤ¸ãĥ£": 1261,
      "æµģ": 1262,
      "Ġw": 1263,
      "ãģ¾ãĤĬ": 1264,
      "åİŁ": 1265,
      "çĦ¶": 1266,
      "ãģķãĤĮãĤĭ": 1267,
      "ãģ£ãģ¦ãģĦãĤĭ": 1268,
      "ãĥ¼ãĤ¯": 1269,
      "Ġd": 1270,
      "èį": 1271,
      "é§": 1272,
      "ĠæľĢ": 1273,
      "ãģªãģĮãĤī": 1274,
      "âĿĹ": 1275,
      "æĿ±": 1276,
      "ç©º": 1277,
      "ic": 1278,
      "äººãģĮ": 1279,
      "ãģłãģĳãģ©": 1280,
      "å¬ī": 1281,
      "wwww": 1282,
      "ç¹": 1283,
      "ãģĻãģİãĤĭ": 1284,
      "çµĮ": 1285,
      "ãģ»ãģ©": 1286,
      "çļĦãģ«": 1287,
      "äºĮ": 1288,
      "ãģĹãģŁãģĦ": 1289,
      "æ°ĹãģĮ": 1290,
      "æ¶": 1291,
      "å¼ı": 1292,
      "ãĥĹãĥ¬ãĤ¼ãĥ³ãĥĪ": 1293,
      "30": 1294,
      "âľ": 1295,
      "éľ": 1296,
      "è¶³": 1297,
      "ä»ĸ": 1298,
      "ãģ®ä¸Ń": 1299,
      "å¢Ĺ": 1300,
      "çµ¶": 1301,
      "ed": 1302,
      "om": 1303,
      "åıį": 1304,
      "åĳĬ": 1305,
      "ãģĭãĤĭ": 1306,
      "~~": 1307,
      "åľ¨": 1308,
      "ãģ¬": 1309,
      "æĮģãģ¡": 1310,
      "ĠãĤĦ": 1311,
      "éĢ²": 1312,
      "åĪ©": 1313,
      "ãĤģãĤĭ": 1314,
      "ãĤĪãĥ¼": 1315,
      "ç¬¬": 1316,
      "èª°": 1317,
      "ãģĤãĤĬãģ¾ãģĻ": 1318,
      "ãģ¨ãģĵãĤį": 1319,
      "ãģ«ãģĹãģ¦": 1320,
      "ĠãĢİ": 1321,
      "Ġç§ģ": 1322,
      "éģĬ": 1323,
      "é£²": 1324,
      "ãĥĴ": 1325,
      "è¿Ķ": 1326,
      "åħ¬éĸĭ": 1327,
      "æľ¬å½ĵãģ«": 1328,
      "éĽ£": 1329,
      "ãģªãģıãģ¦": 1330,
      "è¦ļ": 1331,
      "ãģĤãģ£ãģŁ": 1332,
      "çļĨ": 1333,
      "éĿŀ": 1334,
      "ãģŁãģ¡": 1335,
      "us": 1336,
      "âĺº": 1337,
      "çĭ": 1338,
      "çĮ": 1339,
      "è¶ħ": 1340,
      "èĦ": 1341,
      "ãĤĪãģĨãģª": 1342,
      "ãģ¨ãĤĤ": 1343,
      "ĠP": 1344,
      "ãĥ³ãĤ¯": 1345,
      "ãĤģãģ¡ãĤĥ": 1346,
      "å¸°": 1347,
      "ãģķãĤĮ": 1348,
      "ãģĵãģ¨ãģĮ": 1349,
      "èĳī": 1350,
      "æŃ¢": 1351,
      "ĠãģĨ": 1352,
      "éĺ": 1353,
      "å¿ħ": 1354,
      "ä¸ĬãģĴ": 1355,
      "èŃ°": 1356,
      "ç¿": 1357,
      "ãĥĹãĥŃ": 1358,
      "ãĤĵãģ§ãģĻ": 1359,
      "ãģıãģ¦": 1360,
      "çŃĶ": 1361,
      "èģ´": 1362,
      "ãĤŃãĥ£ãĥ³ãĥ": 1363,
      "ot": 1364,
      "èħ": 1365,
      "ãĤ¤ãĥ©": 1366,
      "åĩºãģ¦": 1367,
      "ä¼ģ": 1368,
      "ä¹Ĺ": 1369,
      "çĸ²ãĤĮ": 1370,
      "ãģ£ãģ¦ãĤĤ": 1371,
      "ĠãģĿãĤĮ": 1372,
      "ĠB": 1373,
      "çµĦ": 1374,
      "2023": 1375,
      "ãģłãģ¨": 1376,
      "åĭŁéĽĨä¸Ń": 1377,
      "ãģķãģĽãģ¦": 1378,
      "!!!!!!!!": 1379,
      "åĤ¬": 1380,
      "ãģ¿ãģŁãģĦãģª": 1381,
      "ãģ«ãģªãģ£ãģŁ": 1382,
      "ãģī": 1383,
      "ve": 1384,
      "éģĭ": 1385,
      "ä¸ī": 1386,
      "å¸Ĥ": 1387,
      "ãĤīãģĹãģĦ": 1388,
      "¿åĲį": 1389,
      "ãĤ·ãĥ¥": 1390,
      "è»¢": 1391,
      "VRC": 1392,
      "æ·": 1393,
      "ä½į": 1394,
      "ðŁĶ": 1395,
      "ãģ¤ãģĦãģ¦": 1396,
      "åĲĮãģĺ": 1397,
      "è£ħ": 1398,
      "ä¼Ŀ": 1399,
      "åĳ¨": 1400,
      "çģ": 1401,
      "ĠâĢ": 1402,
      "æ¬¡": 1403,
      "ãĤĴè¦ĭ": 1404,
      "è¦³": 1405,
      "éŃĶ": 1406,
      "çĻ»": 1407,
      "ãĥ»ãĥ»ãĥ»": 1408,
      "ãĥ³ãĤ¸": 1409,
      ">ãĢĲ": 1410,
      "Ġ\\": 1411,
      "ãģıãĤĵ": 1412,
      "ãĤ¹ãĤ¯": 1413,
      "å£°": 1414,
      "ä¿Ŀ": 1415,
      "é¡Ķ": 1416,
      "Ġto": 1417,
      "éĮ": 1418,
      "èı": 1419,
      "çĪ": 1420,
      "æ¡": 1421,
      "ãĥķãĤ§": 1422,
      "çŁ¥ãĤī": 1423,
      "åĦª": 1424,
      "ãĤĬãģ«": 1425,
      "æµ·": 1426,
      "ç´Ħ": 1427,
      "âłĢ": 1428,
      "ãģĬãģ¯ãĤĪãģĨãģĶãģĸãģĦãģ¾ãģĻ": 1429,
      "çĶ±": 1430,
      "ãĤĪãĤįãģĹãģıãģĬé¡ĺãģĦãģĹãģ¾ãģĻ": 1431,
      "æ§ĺãģ«": 1432,
      "ãģĦãģĦãģŃ": 1433,
      "Ġ-": 1434,
      "ãģłãĤĪ": 1435,
      "12": 1436,
      "âĢ¢": 1437,
      "ãĢĤãĢĤ": 1438,
      "ãĤ¢ãĤ«": 1439,
      "ĠÌĦ": 1440,
      "ãģĪãģŁ": 1441,
      "ãģ«åħ¥": 1442,
      "äº¬": 1443,
      "ll": 1444,
      "Ġå¤§": 1445,
      "èªķçĶŁ": 1446,
      "witter": 1447,
      "ãģĵãģ¡ãĤī": 1448,
      "ãģ¨æĢĿãģĦãģ¾ãģĻ": 1449,
      "ãģĪãģĪ": 1450,
      "æĽ´": 1451,
      "æĸ¹æ³ķ": 1452,
      "æĺł": 1453,
      "éłĤ": 1454,
      "æĽľ": 1455,
      "éº": 1456,
      "çļĦãģª": 1457,
      "ðŁİģ": 1458,
      "ĠãģĬãģ¯ãĤĪãģĨ": 1459,
      "ï¸İ": 1460,
      "å½ĵãģŁ": 1461,
      "ç³»": 1462,
      "ãĤīãĤĮãĤĭ": 1463,
      "ãģĻãģİãģ¦": 1464,
      "ç½®": 1465,
      "ç·ļ": 1466,
      "åĴĮ": 1467,
      "ĻçľŁ": 1468,
      "å¾Ĺ": 1469,
      "Ġì": 1470,
      "è¦ĸ": 1471,
      "åĨį": 1472,
      "æľ¨": 1473,
      "ãĥĩãĤ£": 1474,
      "âĻ¡": 1475,
      "ãĤĦãģĻãģ¿": 1476,
      "éłŃ": 1477,
      "Ġãģĵãģ®": 1478,
      "ç²": 1479,
      "ãģĽãĤĭ": 1480,
      "ä»¶": 1481,
      "ĠD": 1482,
      "ãģĬãĤģãģ§ãģ¨ãģĨ": 1483,
      "ç¦": 1484,
      "ãĥĹãĥª": 1485,
      "ãĤĦãĤĭ": 1486,
      "æ¤": 1487,
      "æ¬²ãģĹãģĦ": 1488,
      "ãģ£ãģı": 1489,
      "æı´": 1490,
      "ãĤ¹ãĥŀ": 1491,
      "ç®±": 1492,
      "éĸĭåĤ¬": 1493,
      "ĠãģŁ": 1494,
      "Ġ4": 1495,
      "æķµ": 1496,
      "ãĤģãģ£ãģ¡ãĤĥ": 1497,
      "ãģ¿ãģŁ": 1498,
      "ãĤ¹ãĥĨ": 1499,
      "ãĥ¨": 1500,
      "èĬ±": 1501,
      "âĢįâĻ": 1502,
      "ãĤ¤ãĥī": 1503,
      "ãģĦãģı": 1504,
      "ãĥ¼ãĤº": 1505,
      "è«ĸ": 1506,
      "å¤«": 1507,
      "ãģĦãģªãģĦ": 1508,
      "ä¹ħ": 1509,
      "ãĤŃãĥ£ãĥ³ãĥļ": 1510,
      "çĶ£": 1511,
      "ãģ®æĹ¥": 1512,
      "æł¡": 1513,
      "æĺİæĹ¥": 1514,
      "Ġãģ¨": 1515,
      "ãĥªãĥĹ": 1516,
      "ãĤħ": 1517,
      "ãĤŃãĥ£ãĥ³ãĥļãĥ¼ãĥ³": 1518,
      "é»": 1519,
      "ãĤ¤ãĥĻ": 1520,
      "âĿ¤": 1521,
      "çĬ¶": 1522,
      "ĠG": 1523,
      "ä»ĭ": 1524,
      "é¨ĵ": 1525,
      "åįĬ": 1526,
      "å¬īãģĹãģĦ": 1527,
      "ãĥ¼ãĥŀ": 1528,
      "åĢĭ": 1529,
      "tuber": 1530,
      "è¨Ī": 1531,
      "âĨĴ": 1532,
      "åŀĭ": 1533,
      "ãģĳãģŁ": 1534,
      "ãĤ¤ãĥ«": 1535,
      "åı£": 1536,
      "âĪĢ": 1537,
      "æ®ĭ": 1538,
      "å¸¸": 1539,
      "ãģ¦ãĤĭ": 1540,
      "!ãĢį": 1541,
      "ãĤ¯ãĥª": 1542,
      "è·": 1543,
      "ç·Ĵ": 1544,
      "Ġãģ¯": 1545,
      "ãĤŃãĥ£ãĥ©": 1546,
      "è¨ĺå¿µ": 1547,
      "ãĤĵãģ°": 1548,
      "äººãģ®": 1549,
      "âĢĿ": 1550,
      "ðŁĺĤ": 1551,
      "`)": 1552,
      "å»": 1553,
      "Ĭķ": 1554,
      "ãģ£ãģ¦è¨Ģ": 1555,
      "ãĥ³ãĥĹ": 1556,
      "åīįæĹ¥": 1557,
      "ãģķãĤĵãģĮ": 1558,
      "ĠL": 1559,
      "Ġn": 1560,
      "å¦": 1561,
      "éĢŁ": 1562,
      "åı¯èĥ½": 1563,
      "å¤±": 1564,
      "é¤": 1565,
      "è¨Ń": 1566,
      "æ§ĭ": 1567,
      "ãģĵãģ¨ãĤĴ": 1568,
      "ãĥ¯ãĥ¼": 1569,
      "¨æĹ¥": 1570,
      "ãĤ¢ãĥĭ": 1571,
      "ãĤ¤ãĥ©ãĤ¹ãĥĪ": 1572,
      "ãģĵãĤĵãģª": 1573,
      "çīĪ": 1574,
      "è¿½": 1575,
      "amp": 1576,
      "ãģ«ãģĬ": 1577,
      "âģ": 1578,
      "æĸ¹ãģĮ": 1579,
      "ðŁĴ¦": 1580,
      "11": 1581,
      "Ġâĸ": 1582,
      "Ġin": 1583,
      "Ġl": 1584,
      "ãĤ³ãĥ³": 1585,
      "ac": 1586,
      "¿åĲįè³ªåķı": 1587,
      "ãģªãĤĵãģ¦": 1588,
      "Ġy": 1589,
      "ãģĶãģĸãģĦãģ¾ãģĹãģŁ": 1590,
      "ãĢľãĢľ": 1591,
      "éĿ¢çĻ½": 1592,
      "ãģľãģ²": 1593,
      "åı¯æĦĽãģĦ": 1594,
      "ĠW": 1595,
      "ãģ©ãģĵ": 1596,
      "äººãģ¯": 1597,
      "åīįæĹ¥æ¯Ķ": 1598,
      "éĮ²": 1599,
      "Ġä¸Ģ": 1600,
      "ãĥ©ãĤ¤ãĥĸ": 1601,
      "æĴ®": 1602,
      "ãģ¨ãģį": 1603,
      "Ġãĥŀ": 1604,
      "æł¼": 1605,
      "ow": 1606,
      "æĥħåł±": 1607,
      "äºĪå®ļ": 1608,
      "ãģĹãĤĪãģĨ": 1609,
      "ãĢģãĢĮ": 1610,
      "ãĥ³ãĥĢ": 1611,
      "åĻ": 1612,
      "çª": 1613,
      "êĴ": 1614,
      "ä¸ĬãģĮ": 1615,
      "AI": 1616,
      "Ġ5": 1617,
      "ãĥ¼ãĥĹ": 1618,
      "çµĲæŀľ": 1619,
      "ãĤĴãĥķãĤ©ãĥŃãĥ¼": 1620,
      "ãģłãĤįãģĨ": 1621,
      "ãĥĭãĤ³": 1622,
      "ãĤĤãĤī": 1623,
      "ãģĳãģªãģĦ": 1624,
      "å¨": 1625,
      "ðŁĮ¸": 1626,
      "ãĥĥãĥģ": 1627,
      "æ¼Ķ": 1628,
      "æľĽ": 1629,
      "äº¤": 1630,
      "æĻ®": 1631,
      "ĠãģĿãģĨ": 1632,
      "ãģĭãģ«": 1633,
      "ĠãĤ³": 1634,
      "15": 1635,
      "ãĤĵãģ¨": 1636,
      "èªķçĶŁæĹ¥": 1637,
      "Vtuber": 1638,
      "ĠN": 1639,
      "Ġä»ĬæĹ¥ãĤĤ": 1640,
      "id": 1641,
      "ðŁ¤£": 1642,
      "ðŁĺĨ": 1643,
      "æĻĤãģ«": 1644,
      "ĠãĤı": 1645,
      "å«": 1646,
      "åħ±": 1647,
      "ĠF": 1648,
      "ãģĹãģ¦ãģı": 1649,
      "è©¦": 1650,
      "ãģªãģŁ": 1651,
      "ma": 1652,
      "ãģ«ãĤĪ": 1653,
      "çĮ«": 1654,
      "ãģĦãģ¤ãĤĤ": 1655,
      "åıĭ": 1656,
      "ãģ®åŃĲ": 1657,
      "ãĥķãĤ£": 1658,
      "ðŁı": 1659,
      "âĺĢï¸ı": 1660,
      "è¦ª": 1661,
      "ä¾¡": 1662,
      "ä¾Ľ": 1663,
      "åķıé¡Į": 1664,
      "ãĤ¤ãĥĻãĥ³ãĥĪ": 1665,
      "ç¥Ń": 1666,
      "ãĥ³ãĥĨ": 1667,
      "æĢĿãģĦ": 1668,
      "ãģ¥": 1669,
      "æķ£": 1670,
      "åı°": 1671,
      "å¤īãĤı": 1672,
      "å®³": 1673,
      "Ġæĸ°": 1674,
      "ãģĤãģ¨": 1675,
      "and": 1676,
      "ãĥ³ãĤ¿": 1677,
      "èĸ": 1678,
      "å¤ļãģĦ": 1679,
      "å·Ŀ": 1680,
      "æĶ¿": 1681,
      "ãĤ¯ãĥ©": 1682,
      "ĠãĥķãĤ": 1683,
      "çĸ²ãĤĮæ§ĺ": 1684,
      "ãģĦãģ§": 1685,
      "æĨ": 1686,
      "æĮĩ": 1687,
      "ãĥ¼ãģ®": 1688,
      "å¤¢": 1689,
      "å²": 1690,
      "æ¶Ī": 1691,
      "èĮ": 1692,
      "åľŁ": 1693,
      "åıĸãĤĬ": 1694,
      "ç¨®": 1695,
      "ãģĹãģ¾ãģ£ãģŁ": 1696,
      "ĠãĤĤ": 1697,
      "èŃĺ": 1698,
      "æ°ĹæĮģãģ¡": 1699,
      "Ġg": 1700,
      "ãĤ¤ãĤ¹": 1701,
      "ãģĭãĤıãģĦãģĦ": 1702,
      "19": 1703,
      "ãģĤãĤĬãģĮãģ¨ãģĨãģĶãģĸãģĦãģ¾ãģĹãģŁ": 1704,
      "ĠH": 1705,
      "âģł": 1706,
      "ãģ§ãģĻãĤĪãģŃ": 1707,
      "çĦ¡ãģĦ": 1708,
      "åŃĹ": 1709,
      "çŁ³": 1710,
      "ãģĵãģĵ": 1711,
      "å±Ĭ": 1712,
      "ĠæĿ": 1713,
      "ç¸": 1714,
      "åħĪçĶŁ": 1715,
      "å³": 1716,
      "ãģĬãģ¯ãĤĪãģĨ": 1717,
      "éļĽ": 1718,
      "é£Ľ": 1719,
      "ad": 1720,
      "ãĥ¼ãĤ«": 1721,
      "èįī": 1722,
      "ãģĹãĤĥ": 1723,
      "You": 1724,
      "ãģłãģĳãģ§": 1725,
      "ãģĪãģ¦ãĤĭ": 1726,
      "ĠR": 1727,
      "ãģŁãģı": 1728,
      "ĠãģĵãĤĵãģª": 1729,
      "ãĥĭãĥ¥": 1730,
      "å¸«": 1731,
      "ãģĪãģ°": 1732,
      "åĲįæ§ĺãģ«": 1733,
      "ãģ¿ãģ«": 1734,
      "éĥ½": 1735,
      "ãĤĬãģ®": 1736,
      "ðŁĻı": 1737,
      "æĢ¥": 1738,
      "æĺŁ": 1739,
      "åįĺ": 1740,
      "æ²»": 1741,
      "ãģĻãĤĭãģ¨": 1742,
      "ãģĿãĤĵãģª": 1743,
      "éĩı": 1744,
      "ä»¥ä¸Ĭ": 1745,
      "ãģ§ãģĻãĤĪ": 1746,
      "ãģ¡ãĤĥãĤĵãģ¨": 1747,
      "è¡ĵ": 1748,
      "Ġof": 1749,
      "ĠãĤª": 1750,
      "ãģ«ãģ¤ãģĦãģ¦": 1751,
      "æĴĥ": 1752,
      "ãģ§ãģĹãĤĩãģĨ": 1753,
      "è¢": 1754,
      "èģ·": 1755,
      "ãģĻãģĶãģĦ": 1756,
      "ĠãģĶ": 1757,
      "å¼¾": 1758,
      "æĸŃ": 1759,
      "ãģ®ãĤĤ": 1760,
      "ver": 1761,
      "ç¿Ĵ": 1762,
      "ãģªãģ£ãģ¦": 1763,
      "ãĥ³ãĥĲ": 1764,
      "å£«": 1765,
      "ä»ĬæĹ¥ãģ¯": 1766,
      "åĲĪãĤı": 1767,
      "ĠãĥķãĤ©ãĥŃ": 1768,
      "è²©": 1769,
      "!!!<": 1770,
      "ãĥ¢ãĥ³": 1771,
      "Ġæľ¬æĹ¥": 1772,
      "ãģĹãģ¦ãģĬ": 1773,
      "ãģŃãģĩ": 1774,
      "ç·¨": 1775,
      "èĤ²": 1776,
      "ĭãģĮ": 1777,
      "å°ĳãģĹ": 1778,
      "ãģ£ãģıãĤĬ": 1779,
      "çĶ³": 1780,
      "åĭĻ": 1781,
      "el": 1782,
      "ol": 1783,
      "åıİ": 1784,
      "à¹": 1785,
      "ãĥĸãĥ«": 1786,
      "ðŁ¥°": 1787,
      "è¦ĭãģŁ": 1788,
      "ãģķãĤĵãģ¨": 1789,
      "ãģķãģ¾": 1790,
      "åī²": 1791,
      "ãĤ¢ãĥĭãĥ¡": 1792,
      "ig": 1793,
      "?ãĢį": 1794,
      "ðŁĻĩ": 1795,
      "ãĤĴãģĬ": 1796,
      "ãģ«ãĤĥ": 1797,
      "æĿ¥ãģ¦": 1798,
      "æ®µ": 1799,
      "www": 1800,
      "æį": 1801,
      "ãĥķãĤ©": 1802,
      "äººéĸĵ": 1803,
      "äºĨ": 1804,
      "ãĤģãģŁ": 1805,
      "åĪ¤": 1806,
      "ä¿Ĥ": 1807,
      "ãĤĴæĮ": 1808,
      "ãģ«ãģ¦": 1809,
      "ãĥĹãĥ©": 1810,
      "ãĤīãĤĮãģ¦": 1811,
      "ãģ®åĮ": 1812,
      "ãĤ¦ãĥ³ãĥĪ": 1813,
      "å®¹": 1814,
      "è³ªåķıç®±": 1815,
      "åĤĻ": 1816,
      "ãģĵãģ¨ãģ¯": 1817,
      "ãģĪãģªãģĦ": 1818,
      "æ¤ľ": 1819,
      "è²ł": 1820,
      "ãĤ°ãĥ©": 1821,
      "¹ä»ĭ": 1822,
      "æıĽ": 1823,
      "ä¸Ģç·Ĵ": 1824,
      "å¹³": 1825,
      "ãģĵãģĿ": 1826,
      "ãģ»ãģĹãģĦ": 1827,
      "éĤ": 1828,
      "ãĥķãĥĪ": 1829,
      "æ¨©": 1830,
      "ãĤ¢ãĥ«": 1831,
      "å¨ĺ": 1832,
      "ãĤ¢ãĥĥãĥĹ": 1833,
      "......<": 1834,
      "æľĢè¿ĳ": 1835,
      "un": 1836,
      "æľª": 1837,
      "Ġå¿": 1838,
      "ãĥŀãĤ¸": 1839,
      "å«Į": 1840,
      "ç´¹ä»ĭ": 1841,
      "çĻºå£²": 1842,
      "å³¶": 1843,
      "æĽľæĹ¥": 1844,
      "ro": 1845,
      "åŃĺ": 1846,
      "åĥķ": 1847,
      "åīįãģ«": 1848,
      "ç´°": 1849,
      "å½±": 1850,
      "th": 1851,
      "ãĤĴä½ľ": 1852,
      "å¤ª": 1853,
      "ðŁĶ¥": 1854,
      "åħļ": 1855,
      "çĶ»åĥı": 1856,
      "è¥": 1857,
      "æľĢé«ĺ": 1858,
      "éĸĭå§ĭ": 1859,
      "å¿ħè¦ģ": 1860,
      "ãĥ¼ãĤ¿": 1861,
      "ãģ¾ãģĹãĤĩãģĨ": 1862,
      "½éģ¸": 1863,
      "ãĥĪãĥ©": 1864,
      "å¿ľåĭŁ": 1865,
      "ãģĹãģ¾ãģĨ": 1866,
      "ãĤĵãģ©": 1867,
      "ãĤĪãģª": 1868,
      "ãģ§ãģįãģªãģĦ": 1869,
      "Ġãģª": 1870,
      "`*)": 1871,
      "ãģĹãģ¦ãģŁ": 1872,
      "æ°ı": 1873,
      "èĩ´": 1874,
      "ãģįãģŁãģĦ": 1875,
      "ç¾İåĳ³": 1876,
      "ãĥĺ": 1877,
      "å·®": 1878,
      "ä¸Ī": 1879,
      "âĺºï¸ı": 1880,
      "ãĥ³ãĥģ": 1881,
      "æ³¨": 1882,
      "Ġht": 1883,
      "çµ¶å¯¾": 1884,
      "Ġãģ®": 1885,
      "ãĥ¦": 1886,
      "Twitter": 1887,
      "ãģģãģģ": 1888,
      "è«ĩ": 1889,
      "īį": 1890,
      "ãģªãĤĵãģ§": 1891,
      "Ġä½ķ": 1892,
      "2022": 1893,
      "ĠãĤ«": 1894,
      "ãĤ¤ãĤ¯": 1895,
      "éłĥ": 1896,
      "åİ»": 1897,
      "ãģ¨æĢĿãģ£ãģ¦": 1898,
      "éĸ¢ä¿Ĥ": 1899,
      "æĦıåĳ³": 1900,
      "gt": 1901,
      "à¹ĳ": 1902,
      "ãĤªãĥ³": 1903,
      "ube": 1904,
      "çĨ": 1905,
      "ãģĳãĤĮãģ°": 1906,
      "ç¤º": 1907,
      "ãĥ¼ãĥ¼ãĥ¼ãĥ¼": 1908,
      "VRChat": 1909,
      "çģ«": 1910,
      "æĶ¾éĢģ": 1911,
      "åħī": 1912,
      "ç¾©": 1913,
      "êĴ³": 1914,
      "ãģĥ": 1915,
      "åı¤": 1916,
      "è±¡": 1917,
      "ðŁĳį": 1918,
      "ł´": 1919,
      "ap": 1920,
      "ç¯": 1921,
      "çľĮ": 1922,
      "Ġä»ĬæĹ¥ãģ¯": 1923,
      "ä¼ģçĶ»": 1924,
      "æľ«": 1925,
      "ãĥĥãĥī": 1926,
      "åºĥ": 1927,
      "ãĤĴãģ¤": 1928,
      "é£¯": 1929,
      "æŀļ": 1930,
      "ç¨ĭ": 1931,
      "æ¿": 1932,
      "23": 1933,
      "æŃ³": 1934,
      "ãģ¾ãĤĭ": 1935,
      "ä½ľåĵģ": 1936,
      "ãĥ©ãĥľ": 1937,
      "ä½İ": 1938,
      "æĢĸ": 1939,
      "è¼ī": 1940,
      "Ġth": 1941,
      "çªģ": 1942,
      "é¦¬": 1943,
      "end": 1944,
      "æŃ©": 1945,
      "18": 1946,
      "ãģłãģĹ": 1947,
      "ðŁ¤Ķ": 1948,
      "âĥ": 1949,
      "ç±": 1950,
      "èĲ½ãģ¡": 1951,
      "ãģįãģª": 1952,
      "ãĥ¼ãĥ©": 1953,
      "è©³": 1954,
      "ãģ½": 1955,
      "èĤī": 1956,
      "ãģĺãĤĥãĤĵ": 1957,
      "Â°": 1958,
      "ãģĨãģ¡": 1959,
      "ãģĦãģ«": 1960,
      "å¥½ãģįãģª": 1961,
      "¯éĿŀ": 1962,
      "ãģ£ãģĭ": 1963,
      "ãģ£ãģ½": 1964,
      "ãģ®åĭ": 1965,
      "ĠæŃ": 1966,
      "ãģĤãģ£ãģ¦": 1967,
      "åĨĻçľŁ": 1968,
      "è¬Ŀ": 1969,
      "ĠãģĪ": 1970,
      "èĭ¦": 1971,
      "ãģĭãĤĤãģĹ": 1972,
      "ä¸Īå¤«": 1973,
      "ĠÌĩ": 1974,
      "ãĤ¤ãĤº": 1975,
      "ãĥ³ãģ®": 1976,
      "ãģĻãģĲ": 1977,
      "ãģıãģ¡ãĤĥ": 1978,
      "ãģĵãĤĮãģ¯": 1979,
      "éģķãģĨ": 1980,
      "ĠãĤ¹": 1981,
      "14": 1982,
      "æħĭ": 1983,
      "ĠâĨ": 1984,
      "Ġå°": 1985,
      "«çĶ»": 1986,
      "è¨³": 1987,
      "âłĢâłĢ": 1988,
      "ãģĭãģªãģĦ": 1989,
      "ãģıãĤĮ": 1990,
      "æ£": 1991,
      "ðŁ¥º": 1992,
      "ãĤīãĤĮ": 1993,
      "ãģĭãĤīãģªãģĦ": 1994,
      "ĠV": 1995,
      "Ġë": 1996,
      "ãģıãģªãģĦ": 1997,
      "åĲĽ": 1998,
      "è¨ĢãģĨ": 1999,
      "ãĥĻãĥ«": 2000,
      "ãĥ¼ãĥģ": 2001,
      "å¡": 2002,
      "è¨Ģèĳī": 2003,
      "Ġç¬": 2004,
      "çĹĽ": 2005,
      "çŃī": 2006,
      "çľł": 2007,
      "æĻ®éĢļ": 2008,
      "èµ°": 2009,
      "Ġãģķ": 2010,
      "ãģĮãģªãģĦ": 2011,
      "èĩªåĪĨãģ®": 2012,
      "ãģĿãĤĤ": 2013,
      "ðŁ¦": 2014,
      "©ļ": 2015,
      "åĢ¤": 2016,
      "ä¸Ģçķª": 2017,
      "ãģĦãģ¾": 2018,
      "éģİãģİ": 2019,
      "Ġãĥ©": 2020,
      "Ġis": 2021,
      "ãĥĿãĤ±": 2022,
      "ãĥ¼ãĥ«ãĥī": 2023,
      "å¹¸": 2024,
      "ãĤĴä½¿": 2025,
      "ãģĹãĤį": 2026,
      "¾Į": 2027,
      "éħĴ": 2028,
      "ÃĹ": 2029,
      "ãĥ´": 2030,
      "éģħ": 2031,
      "!(": 2032,
      "ä¼ļç¤¾": 2033,
      "äººãģ«": 2034,
      "ĠO": 2035,
      "ãĤīãĤĮãģŁ": 2036,
      "çİĩ": 2037,
      "ãĥĥãĤ¯ãĤ¹": 2038,
      "æĬľ": 2039,
      "æīĵ": 2040,
      "000": 2041,
      "ãĤ¸ãĤ§": 2042,
      "ãģ£ãģĵ": 2043,
      "ãģ¿ãģ¦": 2044,
      "ä»»": 2045,
      "ãĤģãģ¡ãĤĥãģıãģ¡ãĤĥ": 2046,
      "ðŁĵ": 2047,
      "ðŁ«": 2048,
      "Ġå½": 2049,
      "å¿ĺ": 2050,
      "ãĤªãĥª": 2051,
      "é³": 2052,
      "éĽ¨": 2053,
      "å½ĵãģŁãĤĭ": 2054,
      "âĺĨ": 2055,
      "åıĹãģĳ": 2056,
      "ãģĤãģĴ": 2057,
      "ãģ®åł´": 2058,
      "ãģĬãĤģãģ§ãģ¨ãģĨãģĶãģĸãģĦãģ¾ãģĻ": 2059,
      "--": 2060,
      "éĬ": 2061,
      "ãģ§ãģ¯ãģªãģĦ": 2062,
      "21": 2063,
      "âĸ½": 2064,
      "ir": 2065,
      "ãĤĴåĭŁéĽĨä¸Ń": 2066,
      "æ»": 2067,
      "ãĥ¼ãĥĵ": 2068,
      "éĽĳ": 2069,
      "èĻ": 2070,
      "é»Ĵ": 2071,
      "ãĤ³ãĥ¬": 2072,
      "ãģłãģª": 2073,
      "´Ĺ": 2074,
      "ãģ«ãģªãĤĬãģ¾ãģĻ": 2075,
      "áĲ": 2076,
      "éł¼": 2077,
      "åħ¨éĥ¨": 2078,
      "åĻ¨": 2079,
      "æĺ¥": 2080,
      "æĬķç¨¿": 2081,
      "Ĭķç¨¿": 2082,
      "â¬": 2083,
      "æİ¨": 2084,
      "ãĥ¬ãĥ¼": 2085,
      "ãģĦãĤĦ": 2086,
      "ãĤıãģĳ": 2087,
      "ãĤĭãģ®": 2088,
      "ãģ®åĨ": 2089,
      "ãģ£ãģ¦ãģ¾ãģĻ": 2090,
      "æĶ¹": 2091,
      "ãģ¨ãģ®": 2092,
      "å±ķ": 2093,
      "ä¾ĭ": 2094,
      "ãģŁãĤģãģ«": 2095,
      "è¨±": 2096,
      "åĽ£": 2097,
      "æ¸©": 2098,
      "åº§": 2099,
      "Ġ|": 2100,
      "ãĤĦãĤĬ": 2101,
      "IN": 2102,
      "å½¹": 2103,
      "çİĭ": 2104,
      "ãĤ¦ãĥŀ": 2105,
      "Ġç´": 2106,
      "å´": 2107,
      "ĠE": 2108,
      "ĩº": 2109,
      "ãģªãģķãģĦ": 2110,
      "(^": 2111,
      "ãģ®ãĤ¢": 2112,
      "ãģĿãģĨãģª": 2113,
      "åĳ½": 2114,
      "å£Ĭ": 2115,
      "èī¯ãģĭãģ£ãģŁ": 2116,
      "âĥ£": 2117,
      "ãĤ¤ãĥ¤": 2118,
      "ĠãĤµ": 2119,
      "å½¢": 2120,
      "è³ĩ": 2121,
      "çŁ¥ãĤīãģĽ": 2122,
      "â¸": 2123,
      "ãĤ¢ãĤ«ãĤ¦ãĥ³ãĥĪ": 2124,
      "ãģ¾ãģ¾": 2125,
      "ãĤĪãģĭãģ£ãģŁ": 2126,
      "ãĥĲãĥ¼": 2127,
      "ãģĹãģ¦ãĤĤ": 2128,
      "ke": 2129,
      "ãĤ©": 2130,
      "ãĥŀãĥ³": 2131,
      "âĹĭ": 2132,
      "Ġhtt": 2133,
      "ãĤıãĤĮãģ¦": 2134,
      "ãĥģãĤ§": 2135,
      "æ¥½ãģĹãģ¿": 2136,
      "åĪĿãĤģãģ¦": 2137,
      "æ¸Ī": 2138,
      "22": 2139,
      "ãĥĢãĥ¡": 2140,
      "åĳ¨å¹´": 2141,
      "æľį": 2142,
      "èĮ¶": 2143,
      "ãģĹãģ¦ãģ¾ãģĻ": 2144,
      "åĳ¼": 2145,
      "ĠãĥķãĤ©ãĥŃãĥ¼": 2146,
      "éĽ¢": 2147,
      "èī²ãĢħ": 2148,
      "çĦ¡çĲĨ": 2149,
      ">ãĢĮ": 2150,
      "é¡ŀ": 2151,
      "éĻį": 2152,
      "ãģĿãģĵ": 2153,
      "ãĥ¥ãĥ¼": 2154,
      "ãĤĤãĤĵ": 2155,
      "åģ´": 2156,
      "å¤ı": 2157,
      "æ¯İæĹ¥": 2158,
      "çĹħ": 2159,
      "ĠãģĿãģ®": 2160,
      "çĦ¼": 2161,
      "ãģ§ãģĤãĤĭ": 2162,
      "ãĥĸãĥ©": 2163,
      "ãģ¤ãģĭ": 2164,
      "one": 2165,
      "ãĤ«ãĥ¼ãĥī": 2166,
      "è¦ı": 2167,
      "????": 2168,
      "ãģĦãģª": 2169,
      "ãĤ¿ãĤ¤": 2170,
      "ãģĤãģªãģŁ": 2171,
      "ãĥĥãĤŃ": 2172,
      "ãģ»ãĤĵãģ¨": 2173,
      "ãģ«ãģĭ": 2174,
      "½éģ¸ãģ§": 2175,
      "ãĤ¹ãĤ¿ãĥ¼": 2176,
      "éłĳå¼µãģ£ãģ¦": 2177,
      "ãĤ¯ãĥĪ": 2178,
      "ãĤĦãĤĵ": 2179,
      "ãĥ¼ãĥĦ": 2180,
      "è£½": 2181,
      "ãĢľ<": 2182,
      "16": 2183,
      "lt": 2184,
      "ãģĹãģĭãģ£ãģŁ": 2185,
      "ĠÌĨ": 2186,
      "åĬ©": 2187,
      "èµ¤": 2188,
      "ãģ¯ãģĵãģ¡ãĤī": 2189,
      "à¸": 2190,
      "50": 2191,
      "åı·": 2192,
      "^)": 2193,
      "ç¥Ŀ": 2194,
      "å±Ģ": 2195,
      "æ¡Ī": 2196,
      "ãģ´": 2197,
      "ãģĦãĤį": 2198,
      "èĢĥãģĪ": 2199,
      "ðŁĺĥ": 2200,
      "ĠãģĬãģ¯ãĤĪ": 2201,
      "çĦ¡æĸĻ": 2202,
      "ãģ¹ãģį": 2203,
      "ç¹ĭãģĮ": 2204,
      "(<": 2205,
      "ãģªãģ®ãģĭ": 2206,
      "åĢĴ": 2207,
      "éĻ¢": 2208,
      "ãĤ³ãĥŃ": 2209,
      "ãģ£ãģ±ãĤĬ": 2210,
      "è»½": 2211,
      "ãģĦãģ®": 2212,
      "æĿĲ": 2213,
      "ãĥ¡ãĥ³ãĥĪ": 2214,
      "Ġãģ©": 2215,
      "æĶ¯": 2216,
      "çµ¡": 2217,
      "ãģĤãĤĬãģĮãģ¨": 2218,
      "Ġãģ¾ãģŁ": 2219,
      "ä¸Ģç·Ĵãģ«": 2220,
      "è¥¿": 2221,
      "æ·±": 2222,
      "ãĥīãĥ©": 2223,
      "ãģħ": 2224,
      "è³ŀ": 2225,
      "ĠãĥĲ": 2226,
      "ãģķãĤĵãģ«": 2227,
      "ãģĦãģŁãĤī": 2228,
      "st": 2229,
      "ãĥ¼ãĥª": 2230,
      "ãģ«çŃĶ": 2231,
      "ãĥ¼ãĥĬ": 2232,
      "ãģ£ãģ¦ãģªãģĦ": 2233,
      "ãģıãģªãĤĭ": 2234,
      "èĪĪ": 2235,
      "åħ¬å¼ı": 2236,
      "éĸĵéģķ": 2237,
      "ãģ¾ãģĹãģ¦": 2238,
      "å±ħ": 2239,
      "åĮĹ": 2240,
      "çłĶ": 2241,
      "...!": 2242,
      "........": 2243,
      "ðĵ": 2244,
      "å¸ĥ": 2245,
      "å·¥": 2246,
      "æĻĤä»£": 2247,
      "ĠãĤĤãģĨ": 2248,
      "ãģļãģ£ãģ¨": 2249,
      "éĢĨ": 2250,
      "è²»": 2251,
      "ãģĭãĤĵ": 2252,
      "çĪĨ": 2253,
      "17": 2254,
      "ãģ¨ãģª": 2255,
      "çł´": 2256,
      "AN": 2257,
      "ãģıãĤĮãĤĭ": 2258,
      "ãģ¨ãĤĬ": 2259,
      "ãĥ¼ãģĮ": 2260,
      "åĿ": 2261,
      "13": 2262,
      "åĲįåīį": 2263,
      "æ¹": 2264,
      "ä»²": 2265,
      "æºĢ": 2266,
      "YouT": 2267,
      "ä¼¼": 2268,
      "ãĥĸãĥŃ": 2269,
      "å®Ī": 2270,
      "æ¸Ľ": 2271,
      "æİ¥": 2272,
      "èŃ·": 2273,
      "ç¢ºèªį": 2274,
      "Ġãģ§ãĤĤ": 2275,
      "âķ": 2276,
      "Ġyou": 2277,
      "æĺ¨æĹ¥": 2278,
      "ãĤ³ãĥ©ãĥľ": 2279,
      "âĿ¤ï¸ı": 2280,
      "è²©å£²": 2281,
      "ĠæĺİæĹ¥": 2282,
      "__": 2283,
      "ãģ«å¯¾": 2284,
      "ec": 2285,
      "á´Ĺ": 2286,
      "ĠæĹ¥æľ¬": 2287,
      "éĺ²": 2288,
      "åľĴ": 2289,
      "åĸ¶": 2290,
      "il": 2291,
      "ãģĪãģļ": 2292,
      "ãģ§ãģĬ": 2293,
      "ãĤ¿ãĤ¤ãĥ": 2294,
      "ĠãģĬãĤĦãģĻãģ¿": 2295,
      "çĨ±": 2296,
      "æķħ": 2297,
      "éĹ": 2298,
      "çĻºè¡¨": 2299,
      "åĭ¢": 2300,
      "çĤº": 2301,
      "éĻ¤": 2302,
      "è¨¼": 2303,
      "ãģĦãģŁãģĦ": 2304,
      "ãĤĴæĮģ": 2305,
      "çķ°": 2306,
      "im": 2307,
      "å¤§ä¸Īå¤«": 2308,
      "åŁº": 2309,
      "ä½ķãģĭ": 2310,
      "ðŁįĢ": 2311,
      "Ġfor": 2312,
      "ðŁĻĩâĢįâĻ": 2313,
      "çį": 2314,
      "å¤§äºĭ": 2315,
      "ãģĮãĤĵãģ°": 2316,
      "åĬ¹": 2317,
      "ãĤĤãģĤãĤĭ": 2318,
      "Ġãĥ¡": 2319,
      "èĹ": 2320,
      "å¸Į": 2321,
      "è³ªåķıãģ«çŃĶ": 2322,
      "ðŁŁ": 2323,
      "å¾©": 2324,
      "æ¼«çĶ»": 2325,
      "ãģ¨ãģ¦ãĤĤ": 2326,
      "ãģŁãĤĬ": 2327,
      "ç§ĳ": 2328,
      "å¾ħãģ¡": 2329,
      "ãģ®è©±": 2330,
      "âĶģâĶģâĶģâĶģ": 2331,
      "è¶Ĭ": 2332,
      "çĴ": 2333,
      "ãĢįãĢĮ": 2334,
      "ãģ¸ãģ®": 2335,
      "çħ": 2336,
      "é§ħ": 2337,
      "åĥį": 2338,
      "ãģĹãģ¦ãģĦãģ¾ãģĻ": 2339,
      "ãĥ¼ãĥĲ": 2340,
      "ãģĿãĤį": 2341,
      "ãģĦãģŁãģĹãģ¾ãģĻ": 2342,
      "ãĤ»ãĥĥãĥĪ": 2343,
      "é«ĺãģĦ": 2344,
      "æ´¾": 2345,
      "ãģįãĤĥ": 2346,
      "ãĥªãĤ¹": 2347,
      "ç¨İ": 2348,
      "ãģķãĤĵãģ¯": 2349,
      "ãģ£ãģŁãĤĬ": 2350,
      "ãĤĴæı": 2351,
      "æĺłçĶ»": 2352,
      "éľĩ": 2353,
      "Ġç¬¬": 2354,
      "âī": 2355,
      "ãģ£ãģĭãĤĬ": 2356,
      "ãģ®åĽ": 2357,
      "ãģ¿ãĤĵãģªãģĭãĤī": 2358,
      "ç¤¼": 2359,
      "Ġåį": 2360,
      "ðŁĺĬ<": 2361,
      "Ġãģ§": 2362,
      "ĠãģĵãĤĵãģªè³ªåķıãģ«çŃĶ": 2363,
      "ãĤ³ãĥŁ": 2364,
      "åĢį": 2365,
      "ä¸ĢæĹ¥": 2366,
      "ãģŁãģł": 2367,
      "ãģ»ãģĨ": 2368,
      "ä¼ĳãģ¿": 2369,
      "æĬĢ": 2370,
      "èģŀãģĦãģ¦": 2371,
      "ãģķãģĽ": 2372,
      "åħ¨ãģ¦": 2373,
      "âĢĻ": 2374,
      "æľŁéĸĵ": 2375,
      "çµ±": 2376,
      "æĤªãģĦ": 2377,
      "ãĥ¼ãĥĳ": 2378,
      "ç§ģãģ¯": 2379,
      "ĠãĤ¨": 2380,
      "ĠãģĵãĤĮãģ¯": 2381,
      "éģ©": 2382,
      "æīĭãģ«": 2383,
      "æĹ¥çĽ®": 2384,
      "ç·ı": 2385,
      "è¤": 2386,
      "ãĥ¬ãĤ¹": 2387,
      "ä¸ĭãģķãģĦ": 2388,
      "æĹı": 2389,
      "éĻĲå®ļ": 2390,
      "ä½Ļ": 2391,
      "æĪĳ": 2392,
      "¿åĲįè³ªåķıãĤĴåĭŁéĽĨä¸Ń": 2393,
      "ãģ®åĮ¿åĲįè³ªåķıãĤĴåĭŁéĽĨä¸Ń": 2394,
      "ãģ¿ãĤĵãģªãģĭãĤīãģ®åĮ¿åĲįè³ªåķıãĤĴåĭŁéĽĨä¸Ń": 2395,
      "ãģ¡ãĤĥãģĨ": 2396,
      "å½¼": 2397,
      "âĿ£": 2398,
      "èħ¹": 2399,
      "ãģ¯ãģĦ": 2400,
      "çµ¦": 2401,
      "è¿·": 2402,
      "èĭ¥": 2403,
      "ãĥĥãĤ·ãĥ¥": 2404,
      "çĻ»åł´": 2405,
      "åħ¨çĦ¶": 2406,
      "å¥³æĢ§": 2407,
      "ãĥ©ãĥ¼": 2408,
      "ä½ı": 2409,
      "ãĥĬãĥ«": 2410,
      "ä»ĬæĹ¥ãĤĤ": 2411,
      "æ®º": 2412,
      "ç©¶": 2413,
      "ãģ®æĸ¹ãģĮ": 2414,
      "éĿĴ": 2415,
      "éī": 2416,
      "ãģĪãģ¦ãĤĭãĤĪ": 2417,
      "Ġand": 2418,
      "å®¢": 2419,
      "ä»¥å¤ĸ": 2420,
      "ãĥ¼ãĤĵ": 2421,
      "ãģĤãĤĮ": 2422,
      "éģł": 2423,
      "īå¼·": 2424,
      "ä¸ŃåĽ½": 2425,
      "ĠÌģãĥ»": 2426,
      "åĩĦ": 2427,
      "Ġå¹": 2428,
      "ãĥ³ãĥĩ": 2429,
      "åķĨ": 2430,
      "æĿ±äº¬": 2431,
      "ãģłãĤį": 2432,
      "Ġãģ¿ãĤĵãģª": 2433,
      "åĪĩãĤĬ": 2434,
      "ãģ¨ãģĦ": 2435,
      "ãģĭãģĦ": 2436,
      "ä¿®": 2437,
      "ab": 2438,
      "ãģ¯ãģļ": 2439,
      "ĠãģĬãĤģãģ§ãģ¨ãģĨ": 2440,
      "ĠãģĵãĤĵãģªè³ªåķıãģ«çŃĶãģĪãģ¦ãĤĭãĤĪ": 2441,
      "ãĤ¯ãĤ½": 2442,
      "è¿İ": 2443,
      "ðŁĺħ": 2444,
      "ps": 2445,
      "all": 2446,
      "æĻ´": 2447,
      "ãĥĪãĥ¬": 2448,
      "ĠãĥĹ": 2449,
      "Ġâľ": 2450,
      "ãģĬãģĬãģĬãģĬ": 2451,
      "ãģ¯ãģªãģĦ": 2452,
      "ãģ£ãģ±ãģĦ": 2453,
      "çµĲæ§ĭ": 2454,
      "ãĢģãĢģãĢģ": 2455,
      "å¿ľæı´": 2456,
      "ðŁĴª": 2457,
      "ãģĵãģ¨ãģ§": 2458,
      "Ġå¯": 2459,
      "ç±³": 2460,
      "ãĤĦãĤī": 2461,
      "å¾¡": 2462,
      "ãģªãģ®ãģ«": 2463,
      "ãģĭãĤīãģ®": 2464,
      "é¤¨": 2465,
      "ĠðŁĮ": 2466,
      "èĭ±": 2467,
      "è¡Įãģ£ãģ¦": 2468,
      "ãĤ¦ãĥŀå¨ĺ": 2469,
      "YouTube": 2470,
      "åĩºãģĻ": 2471,
      "sh": 2472,
      "ãĤĵãģłãĤĪ": 2473,
      "Ġe": 2474,
      "ðŁĺŃðŁĺŃ": 2475,
      "ãģ«ãģªãĤĬ": 2476,
      "ãĥķãĤ©ãĥŃãĥ¯ãĥ¼": 2477,
      "ãĥ¬ãĥ³ãĤ¸": 2478,
      "é¦ĸ": 2479,
      "å¤§åŃ¦": 2480,
      "ãĥ¼ãĥĨ": 2481,
      "èĩ´ãģĹãģ¾ãģĻ": 2482,
      "ãģļãģ«": 2483,
      "æĭ¡": 2484,
      "æĽ´æĸ°": 2485,
      "ç´Ļ": 2486,
      "æ¥½ãģĹãģĦ": 2487,
      "æĿ¥ãģŁ": 2488,
      "éĢĥ": 2489,
      "ä»Ĭå¹´": 2490,
      "ut": 2491,
      "...ãĢĤ": 2492,
      "âĻª<": 2493,
      "ãĥĭãĥ¥ãĥ¼ãĤ¹": 2494,
      "æĺ¯éĿŀ": 2495,
      "âľ¨âľ¨": 2496,
      "24": 2497,
      "ãĤ¥": 2498,
      "ãģĭãģªãĤĬ": 2499,
      "ãĢį<": 2500,
      "Ġãģ¤": 2501,
      "æ³£": 2502,
      "ãĤ±ãĥĥãĥĪ": 2503,
      "ĠâĢ»": 2504,
      "ķçĶ»": 2505,
      "æľĢå¾Į": 2506,
      "ãģĬãģĨ": 2507,
      "ç¤¾ä¼ļ": 2508,
      "âĶĪ": 2509,
      "ãģĭãĤīãĤĤ": 2510,
      "éĸĵãģ«": 2511,
      "å¤ļåĪĨ": 2512,
      "ðŁĺĩ": 2513,
      "åħĥæ°Ĺ": 2514,
      "ãģ®ãģł": 2515,
      "ãĥ©ãĤ¤ãĥ³": 2516,
      "ãģ¨æĢĿãģ£ãģŁ": 2517,
      "åı¸": 2518,
      "Ġãģ©ãģĨ": 2519,
      "æ²¢": 2520,
      "è¸": 2521,
      "ç´łæķµ": 2522,
      "ãĥ¼ãĥķ": 2523,
      "ãĥ¼ãĥĸ": 2524,
      "ãģıãĤĮãģ¦": 2525,
      "ãģĭãģĳ": 2526,
      "ãĤ¿ãĥ«": 2527,
      "ãģĹãģ¶": 2528,
      "è»į": 2529,
      "ç²¾": 2530,
      "ãģıãĤĮãģŁ": 2531,
      "ãĤ°ãĥĥ": 2532,
      "æĺ¼": 2533,
      "Ġãĥı": 2534,
      "ĠçĦ": 2535,
      "è·¯": 2536,
      "ãģ§ãģ®": 2537,
      "äºķ": 2538,
      "æĹħ": 2539,
      "è¡£": 2540,
      "çĲĨçĶ±": 2541,
      "ag": 2542,
      "ä¸ĩåĨĨ": 2543,
      "æ±ºå®ļ": 2544,
      "ĠçĽ": 2545,
      "ãģķãģĽãģ¦ãģĦãģŁãģł": 2546,
      "ãĤ·ãĤ¢": 2547,
      "Ġãģ¡": 2548,
      "ä»®": 2549,
      "å¼ķãģį": 2550,
      "ãĤ¯ãĥŃ": 2551,
      "çŀ": 2552,
      "ãĤĴRT": 2553,
      "ãĤ¹ãĥļ": 2554,
      "ãģ£ãģ¦ãģĦãģĨ": 2555,
      "åĽ²": 2556,
      "èŃ¦": 2557,
      "çĶŁæ´»": 2558,
      "ãģ¾ãģ¨": 2559,
      "ãģ®ãģĭãģª": 2560,
      "ãģ«ãģĻãĤĭ": 2561,
      "åħ·": 2562,
      "ãĤ¨ãĥ«": 2563,
      "âĿĹâĿĹ": 2564,
      "ãģĿãģĨãģĦãģĨ": 2565,
      "çĽĽ": 2566,
      "ãģĬãģ¯ãĤĪ": 2567,
      "ãģĦãģ¦ãĤĭ": 2568,
      "éĿ¢çĻ½ãģĦ": 2569,
      "ĠèĩªåĪĨ": 2570,
      "25": 2571,
      "ãģ£ãģ£": 2572,
      "æķĻãģĪãģ¦": 2573,
      "æĪ»": 2574,
      "æŁ»": 2575,
      "å·»": 2576,
      "ãĥįãĤ¿": 2577,
      "Ġãĥģ": 2578,
      "ON": 2579,
      "ER": 2580,
      "ç¦ı": 2581,
      "ĠæĻ": 2582,
      "çĲĨè§£": 2583,
      "çĲĥ": 2584,
      "é¬": 2585,
      "å¤§å¤ī": 2586,
      "æķ´": 2587,
      "PC": 2588,
      "Ġçļ": 2589,
      "ãģ£ãģ¦ãģįãģŁ": 2590,
      "æĲ": 2591,
      "ãģ«ãģªãĤĬãģ¾ãģĹãģŁ": 2592,
      "å®Įåħ¨": 2593,
      "ãģĹãģ¦ãģĦãģŁ": 2594,
      "ãģĭãģĹãģĦ": 2595,
      "ãģĤãģĪãģļ": 2596,
      "éĥİ": 2597,
      "æ³ģ": 2598,
      "çŃĸ": 2599,
      "æĢĿãģĨ": 2600,
      "æ°ĹãģĮãģĻãĤĭ": 2601,
      "`)<": 2602,
      "ãĤıãģªãģĦ": 2603,
      "ĠãģĤãĤĬãģĮãģ¨ãģĨ": 2604,
      "ãĥ¢ãĥĩ": 2605,
      "ãģ«åĩº": 2606,
      "æĿĳ": 2607,
      "ld": 2608,
      "ãĤ¾": 2609,
      "ãģ®ãģ§ãģĻãģĮ": 2610,
      "å¬īãģĹãģĦãģ§ãģĻ": 2611,
      "èĸ¬": 2612,
      "ĠåĨ": 2613,
      "ãĥ³ãĥĳ": 2614,
      "ãĥ¬ãĥĻãĥ«": 2615,
      "¥½ãģĹ": 2616,
      "è¾¼ãģ¿": 2617,
      "æĹ©ãģı": 2618,
      "è¢«": 2619,
      "è¬İ": 2620,
      "âĢľ": 2621,
      "Ġåĭ": 2622,
      "ãĤĤãģ£ãģ¨": 2623,
      "çĶ³ãģĹ": 2624,
      "ç¥¨": 2625,
      "ãģŁãģĹ": 2626,
      "ãĤĵãĤĦ": 2627,
      "ãģ¿ãģª": 2628,
      "èĹ¤": 2629,
      "ĠãģĻ": 2630,
      "éºĹ": 2631,
      "ä»ĬåĽŀ": 2632,
      "ĠãģĿãģĹãģ¦": 2633,
      "ãģ¹ãģ¦": 2634,
      "ĠðŁİ": 2635,
      "ãģªãģıãģª": 2636,
      "éŁ¿": 2637,
      "ĠãĥĦ": 2638,
      "ãģ±": 2639,
      "æĻĤãģĭãĤī": 2640,
      "å®Łãģ¯": 2641,
      "//": 2642,
      "ãĤıãĤĮãĤĭ": 2643,
      "ĠãĤ·": 2644,
      "ãĤĴè¦ĭãģ¦": 2645,
      "ãĥ©ãĥ³": 2646,
      "ãĤĦãģ£ãģŁ": 2647,
      "ãĥªãĥĦãĤ¤ãĥ¼ãĥĪ": 2648,
      "éĽª": 2649,
      "Ġon": 2650,
      "ĠRT": 2651,
      "æŁĵ": 2652,
      "ãģĹãģĭãģªãģĦ": 2653,
      "è¡Įãģı": 2654,
      "ãĥªãĤ«": 2655,
      "æĶ»": 2656,
      "ç¦ģ": 2657,
      "ãģĮåĩº": 2658,
      "ãģĲãĤīãģĦ": 2659,
      "ãĤ¦ãĤ£": 2660,
      "æ±Ĥ": 2661,
      "ä»ĺãģĳ": 2662,
      "¥³": 2663,
      "å®®": 2664,
      "ãĥķãĥ¬": 2665,
      "DM": 2666,
      "ç½ª": 2667,
      "ãģĬãĤĦãģĻãģ¿": 2668,
      "Ġ&": 2669,
      "çĬ¬": 2670,
      "ä¹ħãģĹãģ¶": 2671,
      "ãģªãģĹ": 2672,
      "ĠåĽ": 2673,
      "åıĭéģĶ": 2674,
      "ç§»": 2675,
      "ĠJ": 2676,
      "ãĥ¯ãĤ¯": 2677,
      "æĻ¯": 2678,
      "ãĥ»)": 2679,
      "å¤§ãģį": 2680,
      "åĽ³": 2681,
      "ST": 2682,
      "ãĤ¸ãĥ¥": 2683,
      "Ġãģĵãģ¡ãĤī": 2684,
      "éĢĢ": 2685,
      "ãĤĤãģĹ": 2686,
      "ãģĤãģĤãģĤãģĤãģĤãģĤãģĤãģĤ": 2687,
      "éĺª": 2688,
      "...(": 2689,
      "ãĤıãĤĮãģŁ": 2690,
      "ãĥ¬ãĥĵ": 2691,
      "art": 2692,
      "ãĤĵãģ®": 2693,
      "Ġâĸ¼": 2694,
      "è©³ç´°": 2695,
      "çĶŁãģį": 2696,
      "æĦŁè¬Ŀ": 2697,
      "ä»ĬæĹ¥ãģ®": 2698,
      "ãĤĦãģ£ãģ¦ãĤĭ": 2699,
      "è°": 2700,
      "è¨ĺäºĭ": 2701,
      "ĠåĪĿ": 2702,
      "ãģ«ãĤĪãĤĭ": 2703,
      "âļ": 2704,
      "ãģ®å¿": 2705,
      "Ġ10": 2706,
      "ä½¿ãģĦ": 2707,
      "å¯Ł": 2708,
      "ĠãĤĴ": 2709,
      "ãĥŃãĥ¼": 2710,
      "Ġãĥĳ": 2711,
      "éĸĢ": 2712,
      "Ġæ¯": 2713,
      "è©ķ": 2714,
      "ðŁı»": 2715,
      "å¢ĥ": 2716,
      "ãĥªãĥ¼ãĤº": 2717,
      "ãģĭãģĹ": 2718,
      "ìĿ": 2719,
      "æºĸ": 2720,
      "è³¼": 2721,
      "ãĤĵãģ«": 2722,
      "ä¸¡": 2723,
      "ãģ®å¾Į": 2724,
      "ak": 2725,
      "ãĤĪãģĦ": 2726,
      "å¯Ħ": 2727,
      "ãĥ¶": 2728,
      "ãģĵãģĨãģĦãģĨ": 2729,
      "éĢł": 2730,
      "ĠæľĢè¿ĳ": 2731,
      "ĥķ": 2732,
      "å¼·ãģĦ": 2733,
      "è¿½åĬł": 2734,
      "éļĬ": 2735,
      "ri": 2736,
      "æĽ¸ãģį": 2737,
      "æĮ¯": 2738,
      "èĪŀ": 2739,
      "ĠãĤĨ": 2740,
      "ãĤĴæĬ": 2741,
      "est": 2742,
      "ãģ®åīį": 2743,
      "ew": 2744,
      "å¸ĮæľĽ": 2745,
      "ĠçļĨ": 2746,
      "op": 2747,
      "ãĥªãĤ¢ãĥ«": 2748,
      "è°·": 2749,
      "ãģŁãģ¾": 2750,
      "ðŁ¥³": 2751,
      "èĢĥãģĪãģ¦": 2752,
      "ind": 2753,
      "ãĤ¤ãĥĬ": 2754,
      "è¨Ģãģ£ãģ¦": 2755,
      "ãĤıãģĭãĤĭ": 2756,
      "ãĤŃãĥ¥": 2757,
      "ãģŃãĥ¼": 2758,
      "Ġä»ĬåĽŀ": 2759,
      "ra": 2760,
      "Ģï¸ı": 2761,
      "çłĶç©¶": 2762,
      "ãĤ¹ãĥŀãĥĽ": 2763,
      "éģİåİ»": 2764,
      "ãģŁãģıãģķãĤĵ": 2765,
      "ãģĵãģ¨ãģ«": 2766,
      "ãģıãģłãģķ": 2767,
      "èĦ³": 2768,
      "æĸ¹ãģ¯": 2769,
      "æ¯į": 2770,
      "ãĤĦãģ°": 2771,
      "â¸Ŀ": 2772,
      "ä¸Ńãģ«": 2773,
      "ãĥ¼ãĥĢ": 2774,
      "ãĥŀãĤ¸ãģ§": 2775,
      "ãģĤãĤĬãģ¾ãģĽãĤĵ": 2776,
      "ĠãģĬçĸ²ãĤĮæ§ĺ": 2777,
      "ãĥ¼ãĤ·ãĥ§ãĥ³": 2778,
      "æıĲ": 2779,
      "((": 2780,
      "æ½": 2781,
      "åįĥ": 2782,
      "ãĤ°ãĥĥãĤº": 2783,
      "59": 2784,
      "ðŁĩ": 2785,
      "ãĤ¤ãĥ¡": 2786,
      "zon": 2787,
      "åīįãģ®": 2788,
      "ãģĤãģ®": 2789,
      "ãĤĪãĤįãģĹãģıãģĬé¡ĺãģĦ": 2790,
      "ãĤĴæİ": 2791,
      "éģİãģĶ": 2792,
      "éĻº": 2793,
      "Ġãĥª": 2794,
      "ä½ķãĤĤ": 2795,
      "Ġv": 2796,
      "ãĤ¦ãĥ³": 2797,
      "è³¼åħ¥": 2798,
      "ht": 2799,
      "ãĤĵãģ§ãĤĭ": 2800,
      "ãģ®ãĥ¡": 2801,
      "æĿ¡": 2802,
      "ãģĬçĸ²ãĤĮæ§ĺ": 2803,
      "od": 2804,
      "ç·´": 2805,
      "Ġ:": 2806,
      "ãģ®æĬķç¨¿": 2807,
      "ç´¢": 2808,
      "âĶĪâĶĪ": 2809,
      "èı¯": 2810,
      "ãĥ¼ãĥ¡": 2811,
      "ãģĦãģ§ãģĻ": 2812,
      "ä»ĺãģį": 2813,
      "åĮ¿åĲįè³ªåķı": 2814,
      "ãģĻãĤĮãģ°": 2815,
      "ĠçĦ¡": 2816,
      "æĽ¸ãģĦãģ¦": 2817,
      "èµ·ãģį": 2818,
      "ä¼ģæ¥Ń": 2819,
      "æŃ¦": 2820,
      "åĲĦ": 2821,
      "æĻĤãģ¯": 2822,
      "ãĥģãĥ¥": 2823,
      "è£ľ": 2824,
      "ãĤīãģı": 2825,
      "åı¯èĥ½æĢ§": 2826,
      "ãĥ¼ãĤŃ": 2827,
      "ãģĮãģĤ": 2828,
      "ľ°": 2829,
      "åı²": 2830,
      "è¾º": 2831,
      "ãĥ¼ãģ¨": 2832,
      "åŃ¦æł¡": 2833,
      "um": 2834,
      "ãģ®å½": 2835,
      "ðŁĻĮ": 2836,
      "è²·ãģĦ": 2837,
      "è£ı": 2838,
      "Ġre": 2839,
      "ãĥĿãĤ±ãĥ¢ãĥ³": 2840,
      "ãĤ¸ãĤª": 2841,
      "ĠãĤļ": 2842,
      "ãĤĵãģ¯": 2843,
      "ĠãģĤãģ¨": 2844,
      "ãĤĻ": 2845,
      "ãĥĩãĤ¶": 2846,
      "åĮ¿åĲįè³ªåķıåĭŁéĽĨä¸Ń": 2847,
      "ãģ®ä¸Ģ": 2848,
      "æ¥µ": 2849,
      "Ġãĥĩ": 2850,
      "éģĬãģ³": 2851,
      "ä¾¿": 2852,
      "åĩ¦": 2853,
      "åĭīå¼·": 2854,
      "ĠãģĮ": 2855,
      "èĢħãģĮ": 2856,
      "ãĥ¼ãģĦ": 2857,
      "ä¸¦": 2858,
      "ãĤ¹ãĤ«": 2859,
      "ĠæĬ": 2860,
      "äºĪç´Ħ": 2861,
      "ãģ·": 2862,
      "ãĥ³ãĥķ": 2863,
      "ĠK": 2864,
      "Ġä¿º": 2865,
      "ãģ¾ãģ£ãģŁ": 2866,
      "è¦§": 2867,
      "ãĤĵãģłãĤįãģĨ": 2868,
      "åĭ¤": 2869,
      "åįģ": 2870,
      "çĹĩ": 2871,
      "æİ¢": 2872,
      "æĸ°ãģĹãģĦ": 2873,
      "ĠçĻ": 2874,
      "æ´»åĭķ": 2875,
      "ãģ£ãģį": 2876,
      "ãĥ¼ãĥĩ": 2877,
      "äºī": 2878,
      "oc": 2879,
      "Ġbe": 2880,
      "ãģ§ãģįãģŁ": 2881,
      "ãĥ³ãģĮ": 2882,
      "ãĥªãĤª": 2883,
      "ãĤīãĤĵ": 2884,
      "ä½ľæ¥Ń": 2885,
      "å¯Ĵ": 2886,
      "æĽ¿": 2887,
      "å®¤": 2888,
      "å®ŁéļĽ": 2889,
      "Ġãĥ¯": 2890,
      "Ġçī": 2891,
      "å²¡": 2892,
      "Ġå½ĵ": 2893,
      "ç®Ĺ": 2894,
      "ãģĿãĤĮãģ¯": 2895,
      "å®ħ": 2896,
      "é«ª": 2897,
      "æ¿Ģ": 2898,
      "æĮĻ": 2899,
      "çŀ¬": 2900,
      "ç©į": 2901,
      "ãĤīãĤĮãģªãģĦ": 2902,
      "ç´į": 2903,
      "Ìģ": 2904,
      "éīĦ": 2905,
      "...?": 2906,
      "ãģĭãĤĤãģĹãĤĮãģªãģĦ": 2907,
      "ãģĿãģĹãģ¦": 2908,
      "ãģĹãģŁãĤĬ": 2909,
      "ãĥķãĥ«": 2910,
      "ä¸¸": 2911,
      "Ġãĥī": 2912,
      "ãĤĮãģ¦ãĤĭ": 2913,
      "ãĤµãĤ¤ãĥĪ": 2914,
      "åľ§": 2915,
      "ãģŃãģĪ": 2916,
      "è§¦": 2917,
      "ðŁĮŁ": 2918,
      "ãģ²ãģ¨": 2919,
      "ãĥĪãĥ«": 2920,
      "äº¤æıĽ": 2921,
      "ãĥ¢ãĥĩãĥ«": 2922,
      "åĽ°": 2923,
      "ãĥ¯ãĥ¼ãĥ«ãĥī": 2924,
      "è¾Ľ": 2925,
      "æĺĶ": 2926,
      "*)<": 2927,
      "ãģĹãģ¦ãģªãģĦ": 2928,
      "æ¯İ": 2929,
      "èĩªçĶ±": 2930,
      "äºĴ": 2931,
      "ç§ģãģ®": 2932,
      "AR": 2933,
      "ãģĭãĤīãĤĵ": 2934,
      "ðŁ§": 2935,
      "ç®¡": 2936,
      "Ġåĥķ": 2937,
      "èĢħãģ®": 2938,
      "éŁ³æ¥½": 2939,
      "ãģ«ãģĤãĤĭ": 2940,
      "ãģĿãģĨãģ§ãģĻ": 2941,
      "ãĤĦãģĻãģĦ": 2942,
      "æııãģį": 2943,
      "Ĥï¸ı": 2944,
      "ãĥĥãĤ»": 2945,
      "Ġå¼": 2946,
      "åŃ¦çĶŁ": 2947,
      "ãĥĭãĤ¢": 2948,
      "ãģĤãĤĵ": 2949,
      "å©ļ": 2950,
      "äººãĤĤ": 2951,
      "ãĥ³ãĥį": 2952,
      "åĨ·": 2953,
      "ãĤĴãģĻãĤĭ": 2954,
      "ä¸Ĭæīĭ": 2955,
      "ĠðŁĳ": 2956,
      "ãĤ¤ãĥ³ãĥĪ": 2957,
      "ãģĹãģ¦ãģıãģłãģķãģĦ": 2958,
      "é¡į": 2959,
      "éĽ£ãģĹãģĦ": 2960,
      "æķĹ": 2961,
      ".<": 2962,
      "ãĤ¤ãĥ¡ãĥ¼ãĤ¸": 2963,
      "ãģªãĤĭãģ»ãģ©": 2964,
      "ãĤ°ãĥ«": 2965,
      "ãģ£ãģ¦ãģ¿ãģŁ": 2966,
      "åı³": 2967,
      "åŃĲä¾Ľ": 2968,
      "ãģ«ãģªãģ£ãģ¦ãĤĭ": 2969,
      "Ġå¿ľ": 2970,
      "åħ¥ãĤĬ": 2971,
      "ãĤĭãģĭ": 2972,
      "åĪ¸": 2973,
      "witch": 2974,
      "åįĶ": 2975,
      "ãĤ¸ãĥ§": 2976,
      "ãģ§ãģĹãĤĩãģĨãģĭ": 2977,
      "åĲĪãĤıãģĽ": 2978,
      "å»ĥ": 2979,
      "40": 2980,
      "ãĤ¹ãĤŃ": 2981,
      "æĢĴ": 2982,
      "çĴ°": 2983,
      "èª²": 2984,
      "åį°": 2985,
      "Ġæĺ¨æĹ¥": 2986,
      "æĢĿãģĦåĩº": 2987,
      "åħ¨ãģı": 2988,
      "éĢĶ": 2989,
      "ãģ®åº": 2990,
      "ix": 2991,
      "ĠæĦ": 2992,
      "ãģ«éĸ¢": 2993,
      "ãģ®å£": 2994,
      "å¯¾å¿ľ": 2995,
      "ãģĬãĤĬãģ¾ãģĻ": 2996,
      "æĩ": 2997,
      "å¥´": 2998,
      "éĢļãĤĬ": 2999,
      "é¦Ļ": 3000,
      "ðŁİīðŁİī": 3001,
      "ãģķãĤĵãĤĤ": 3002,
      "âĿĹï¸ı": 3003,
      "ĠãģĦãĤĦ": 3004,
      "ãģ©ãĤĵãģª": 3005,
      "mazon": 3006,
      "ĠU": 3007,
      "Ġâĺ": 3008,
      "ãģ»ãģ¼": 3009,
      "ãĤ¹ãĥĳ": 3010,
      "ãĤ³ãĥŃãĥĬ": 3011,
      "æĤ²": 3012,
      "åħ¥ãĤĮ": 3013,
      "ãĤĴæıı": 3014,
      "ãģķãĤĮãģŁæķ°": 3015,
      "ãģªãģ¿ãģ«": 3016,
      "are": 3017,
      "çĶĺ": 3018,
      "ãģĹãģ¦ãģĬãĤĬãģ¾ãģĻ": 3019,
      "ãģ¤ãģĳ": 3020,
      "ãģ®å°": 3021,
      "è¦ĸèģ´": 3022,
      "!!!!!": 3023,
      "çĶ·æĢ§": 3024,
      "Ġ20": 3025,
      "ãĥ¼ãģ«": 3026,
      "ĠðŁį": 3027,
      "è²´": 3028,
      "æĻ®éĢļãģ«": 3029,
      "ĠðŁĶ": 3030,
      "ºéºĹ": 3031,
      "åł´æīĢ": 3032,
      "ãĤīãģļ": 3033,
      "ãĤĤãģ¡": 3034,
      "Ġæ¬": 3035,
      "åĬ´": 3036,
      "è©°": 3037,
      "int": 3038,
      "Ġà": 3039,
      "ãģ¡ãĤĥãĤĵãģ®": 3040,
      "çİī": 3041,
      "))": 3042,
      "ãĥ¼ãģ¯": 3043,
      "èªŃãģ¿": 3044,
      "åĪ©çĶ¨": 3045,
      "ãģĺãĤĥãģªãģıãģ¦": 3046,
      "ãĥįãĥĥãĥĪ": 3047,
      "ãģ§ãģįãģ¦": 3048,
      "ðŁĳı": 3049,
      "ãģ£ãģ½ãģĦ": 3050,
      "ãģĦãģŁãģłãģĳ": 3051,
      "ãĥĹãĥ¬ãĤ¤": 3052,
      "æ°Ĺãģ¥": 3053,
      "'s": 3054,
      "åĲ«": 3055,
      "åĮ»": 3056,
      "çľģ": 3057,
      "å¼±": 3058,
      "æĸĩåŃĹ": 3059,
      "ãĤīãģ«": 3060,
      "åºľ": 3061,
      "AM": 3062,
      "ç«¯": 3063,
      "åģ¥": 3064,
      "Ġ6": 3065,
      "ãĥľãĤ«": 3066,
      "åĢĭäºº": 3067,
      "em": 3068,
      "ãģ®åį": 3069,
      "æĹ¥ãģ®": 3070,
      "ãĤĦãģ£ãģ±ãĤĬ": 3071,
      "ĠãģĦãģĦãģŃ": 3072,
      "ãĤ¿ãĤ¯": 3073,
      "ãĤ³ãĥ¡ãĥ³ãĥĪ": 3074,
      "åĺ": 3075,
      "AP": 3076,
      "çµĤäºĨ": 3077,
      "nd": 3078,
      "İŁ": 3079,
      "ãĤ¬ãĥģ": 3080,
      "çŁ¥ãĤīãģªãģĦ": 3081,
      "ãĥĥãĤ³": 3082,
      "æ»ħ": 3083,
      "ãģ¨ãģĦãģĨãģĭ": 3084,
      "åįĴ": 3085,
      "æŃ´": 3086,
      "éĸĭçĻº": 3087,
      "åĩºæĿ¥ãĤĭ": 3088,
      "ãģ¯ãģĬ": 3089,
      "çĭ¬": 3090,
      "ãĤ¹ãģ®": 3091,
      "æĸ½": 3092,
      "åĩºãģĹ": 3093,
      "ãĤĵãģ§ãģĻãģĭ": 3094,
      "èĩªåĭķ": 3095,
      "AL": 3096,
      "ãĢĤ(": 3097,
      "åħ¨åĵ¡": 3098,
      "çĻ»éĮ²": 3099,
      "æ¢": 3100,
      "ãģĨãģ¾": 3101,
      "ðŁ¤Ĺ": 3102,
      "ive": 3103,
      "ç°": 3104,
      "~<": 3105,
      "èĥĮ": 3106,
      "ç«ĭãģ¡": 3107,
      "ĠðŁĵ": 3108,
      "è²°": 3109,
      "ĠãģªãĤĵ": 3110,
      "ãĤ»ãĥ³": 3111,
      "é£²ãģ¿": 3112,
      "è¡Ľ": 3113,
      "up": 3114,
      "æĹ¥ãģ«": 3115,
      "ĠãģĦãģĦ": 3116,
      "ãģ¡ãĤĥãģ£ãģŁ": 3117,
      "ãģĭãģ®": 3118,
      "ãĥ¼ãĥĨãĤ£": 3119,
      "å°İ": 3120,
      "æºĲ": 3121,
      "ãĤ®ãĥķãĥĪ": 3122,
      "out": 3123,
      "âĶĢ": 3124,
      "ãģĭãģ£ãģ¦": 3125,
      "Ġhttps": 3126,
      "ãģ»ãģĨãģĮ": 3127,
      "äººçĶŁ": 3128,
      "ĠãĤ¤": 3129,
      "ãģłãģ¨æĢĿãģĨ": 3130,
      "ãĤ·ãĥªãĥ¼ãĤº": 3131,
      "è¡Ģ": 3132,
      "å¹´ãģ®": 3133,
      "ãĤıãĤĮ": 3134,
      "éģ¸æīĭ": 3135,
      "ãģĮãģĦ": 3136,
      "ãģ¡ãģ¯": 3137,
      "ãĥĭãĤ³ãĥĭãĤ³": 3138,
      "ĠãģĹ": 3139,
      "Ġ\"": 3140,
      "æ°ĹãĤĴãģ¤": 3141,
      "ce": 3142,
      "ĠãģĦãģ¤ãĤĤ": 3143,
      "æīķ": 3144,
      "åł´åĲĪ": 3145,
      "æİ¨ãģĹ": 3146,
      "åŁİ": 3147,
      "çĬ¶æħĭ": 3148,
      "ãĥĥãĤ«": 3149,
      "æĭ¡æķ£": 3150,
      "è¨Ńå®ļ": 3151,
      "Ġit": 3152,
      "æĢª": 3153,
      "ãģ£ãģĻ": 3154,
      "ãģ®åŃ": 3155,
      "ãĥ¼ãĤĴ": 3156,
      "Ġãģ¾ãģł": 3157,
      "ãĥģãĥ§": 3158,
      "åīµ": 3159,
      "ĠãģĬãĤģãģ§ãģ¨ãģĨãģĶãģĸãģĦãģ¾ãģĻ": 3160,
      "å¤§å¥½ãģį": 3161,
      "ãģłãģĮ": 3162,
      "ĠðŁĴ": 3163,
      "ãĥĲãĤ¿ãĥ¼": 3164,
      "éļľ": 3165,
      "ãĥĲãĥ¬": 3166,
      "Ġãģµ": 3167,
      "ãĤ¸ãĥĬãĥ«": 3168,
      "ãĥ¤ãĥĲ": 3169,
      "ç¹ĭãģĮãĤĬãģŁãģĦ": 3170,
      "æ³¨æĦı": 3171,
      "Ġê": 3172,
      "âľĮ": 3173,
      "ĠæĿ±": 3174,
      "è¨ĢãģĦ": 3175,
      "ä¸İ": 3176,
      "ãĤĦãĤį": 3177,
      "ðŁİ¶": 3178,
      "ãģ§ãģ¯ãģªãģı": 3179,
      "ðŁĺĮ": 3180,
      "æľĢçµĤ": 3181,
      "ĠãģĿãĤĵãģª": 3182,
      "ãĢľ!": 3183,
      "è¼©": 3184,
      "Ġæľ¬": 3185,
      "â¬ľ": 3186,
      "ãĤĬãģĮ": 3187,
      "ãģ§ãģĹãĤĩ": 3188,
      "çĽ¸æīĭ": 3189,
      "ä¾Ŀ": 3190,
      "ĠãĥŁ": 3191,
      "ãģªãģįãĤĥ": 3192,
      "ãģĬãģ¯ãĤĪãĥ¼": 3193,
      "éĤª": 3194,
      "ik": 3195,
      "å®ľ": 3196,
      "é¬¼": 3197,
      "ãĤµãĤ¤": 3198,
      "é³¥": 3199,
      "æĢĸãģĦ": 3200,
      "æ¸¡": 3201,
      "Ġç¾": 3202,
      "ãģ«è¦ĭ": 3203,
      "ãģĬãģĦ": 3204,
      "ãĥŁãĤ¯": 3205,
      "ĠãĥĦãĤ¤": 3206,
      "ãģ¾ãģļ": 3207,
      "éģķãģĦ": 3208,
      "ĠY": 3209,
      "çĶº": 3210,
      "è²·ãģ£ãģ¦": 3211,
      "ãĥģãĥ³": 3212,
      "æľĢåĪĿ": 3213,
      "ent": 3214,
      "æĻĤãģ®": 3215,
      "èĪĪåĳ³": 3216,
      "äººãģ§": 3217,
      "ðŁİµ": 3218,
      "ç¯Ģ": 3219,
      "åĮº": 3220,
      "ãģĻãģĮ": 3221,
      "Ġé": 3222,
      "ç´ļ": 3223,
      "ãģĮãģĤãģ£ãģŁ": 3224,
      "ĠãģªãĤĵãģĭ": 3225,
      "ãģĤãģ¾ãĤĬ": 3226,
      "ĠãĥĨ": 3227,
      "æĵ": 3228,
      "if": 3229,
      "ĠÌģâĪĢ": 3230,
      "éĢ£çµ¡": 3231,
      "Ġæķ": 3232,
      "å¹¸ãģĽ": 3233,
      "ãģĭãĤīãģŃ": 3234,
      "ãģ¾ãģ£ãģ¦": 3235,
      "ãģĻãģĶãģı": 3236,
      "ç§ĭ": 3237,
      "ãĥªãĥ³": 3238,
      "ãģĮè¦ĭ": 3239,
      "ill": 3240,
      "æĭħ": 3241,
      "ãģŁãĤĵ": 3242,
      "å¤ļãģı": 3243,
      "ãģ°ãģĭãĤĬ": 3244,
      "æ³¢": 3245,
      "åĦĦ": 3246,
      "ãĥªãĥĹãĥ©ãĤ¤": 3247,
      "Ġ)<": 3248,
      "ãĥ¼ãĥ¼ãĥ¼": 3249,
      "Łãĥ³ãĤ°": 3250,
      "ãĤ¢ãĤ¤": 3251,
      "VE": 3252,
      "åĶ": 3253,
      "ãģĮãģĤãĤĬãģ¾ãģĻ": 3254,
      "åĸľ": 3255,
      "ãĤīãģĹ": 3256,
      "ç§Ĵ": 3257,
      "å®ĮæĪĲ": 3258,
      "ãĥ¼ãģ§": 3259,
      "ãĥĩãĥ¼ãĤ¿": 3260,
      "ãĥ³ãĥįãĥ«": 3261,
      "ãĥªãĥ³ãĤ°": 3262,
      "èª¬æĺİ": 3263,
      "æ¨ª": 3264,
      "èµ·ãģĵ": 3265,
      "Ġæµ": 3266,
      "çĬ¯": 3267,
      "åĲĪãģĦ": 3268,
      "âĺºï¸ı<": 3269,
      "ãģ®ãģ¿": 3270,
      "~!": 3271,
      "ç·ł": 3272,
      "ãģ®åĭķçĶ»": 3273,
      "ãģ®å¯": 3274,
      ">)": 3275,
      "ãģ£ãģ¦æĢĿ": 3276,
      "AS": 3277,
      "Ġãģĭ": 3278,
      "å¹´ãĤĤ": 3279,
      "èĢĥãģĪãĤĭ": 3280,
      "è¡£è£ħ": 3281,
      "éĹĺ": 3282,
      "áĦ": 3283,
      "æł¹": 3284,
      "Ġçı¾": 3285,
      "Ġãĥ¬": 3286,
      "ðŁİĬ": 3287,
      "âĨĲ": 3288,
      "ãģ®å¤§": 3289,
      "ãģ®åĳ": 3290,
      "å´İ": 3291,
      "ãĤĨãĤĭ": 3292,
      "ãĤ¬ãĥģãĥ£": 3293,
      "æĬ¼": 3294,
      "ãģ£ãģĳ": 3295,
      "Ġr": 3296,
      "wwwwwwww": 3297,
      "æĹ¢": 3298,
      "ãĤ³ãĥ¼ãĥī": 3299,
      "ç¨ĭåº¦": 3300,
      "ä½¿ãģĨ": 3301,
      "æĹ¥ãģ¯": 3302,
      "ãĤ«ãĥ«": 3303,
      "Ġâľ¨": 3304,
      "ä½ľãģ£ãģŁ": 3305,
      "åĪº": 3306,
      "æĥĳ": 3307,
      "Ġ2023": 3308,
      "å°Ĥ": 3309,
      "ãĤģãĤĵ": 3310,
      "ãģłãģŃ": 3311,
      "æĿ¥ãĤĭ": 3312,
      "ðŁŁ©": 3313,
      "ãģĹãģ¦ãģĦ": 3314,
      "ãĤĤãģªãģĦ": 3315,
      "GO": 3316,
      "éĢ±éĸĵ": 3317,
      "ãĤ¦ãĤ§": 3318,
      "âĿ£ï¸ı": 3319,
      "ãģ¯ãĤĦ": 3320,
      "å¤±ç¤¼": 3321,
      "ðŁĺŃ<": 3322,
      "our": 3323,
      "ãģªãģĬ": 3324,
      "ãĤĤãĤĬ": 3325,
      "ãĤıãĤĬ": 3326,
      "ãģ®æĶ": 3327,
      "èī¯ãģı": 3328,
      "ex": 3329,
      "Ġç´ł": 3330,
      "ight": 3331,
      "ãĤ«ãĥ©": 3332,
      "æĴ®å½±": 3333,
      "ãģªãģĤ": 3334,
      "æ°Ĺãģ«": 3335,
      "ãĥ³ãĥŀ": 3336,
      "éĥ¨å±ĭ": 3337,
      "Ġãģ«": 3338,
      "ãģłãģ£ãģ¦": 3339,
      "âĨĵ": 3340,
      "Ġèĩª": 3341,
      "ãģ¾ãģĺ": 3342,
      "ðŁİĤ": 3343,
      "éĥ¨åĪĨ": 3344,
      "æŀł": 3345,
      "ç°¡": 3346,
      "PS": 3347,
      "ÙĪ": 3348,
      "å¿ľåĭŁæĸ¹æ³ķ": 3349,
      "çļĨæ§ĺ": 3350,
      "æĸ°èģŀ": 3351,
      "ãģªãģĳãĤĮãģ°": 3352,
      "ãĥ¯ãĤ¤": 3353,
      "äºĶ": 3354,
      "ãĥ¡ãĥ©": 3355,
      "Ġ7": 3356,
      "ãĥĳãĥ³": 3357,
      "???": 3358,
      "ãģªãĤĵãģłãģĳãģ©": 3359,
      "äººãĤĴ": 3360,
      "Ù©": 3361,
      "Ġãĥĸ": 3362,
      "ĠãĤŃ": 3363,
      "ç¶ºéºĹ": 3364,
      "ust": 3365,
      "ãģº": 3366,
      "ĠãĥŃ": 3367,
      "ãģ¤ãģı": 3368,
      "çĸĳ": 3369,
      "Ġk": 3370,
      "æİĽ": 3371,
      "ly": 3372,
      "åĪ¶ä½ľ": 3373,
      "ãĤ¿ãĤ¤ãĥł": 3374,
      "ãģķãĤĮãģ¦ãģĦãĤĭ": 3375,
      "ãģ«ãĤĪãģ£ãģ¦": 3376,
      "ãĥĪãĥª": 3377,
      "ðŁĳĢ": 3378,
      "èĪ¬": 3379,
      "çµĮé¨ĵ": 3380,
      "ãģłãģĦ": 3381,
      "ä»Ĭãģ®": 3382,
      "æ¨¡": 3383,
      "ãģ®åĬ": 3384,
      "28": 3385,
      "ãĤ¤ãĥĸ": 3386,
      "çµĲå±Ģ": 3387,
      "éļĶ": 3388,
      "Ġä¸Ń": 3389,
      "çĴ°å¢ĥ": 3390,
      "ãģªãģĦãģ¨": 3391,
      "ãģ©ãĤĮ": 3392,
      "æĿ¾": 3393,
      "ia": 3394,
      "ãģ®ãģ§ãģ¯": 3395,
      "ãģĭãģĳãģ¦": 3396,
      "ãĥ¼ãĥŃ": 3397,
      "çĶŁãģįãģ¦": 3398,
      "ãģ®ãģĤãĤĭ": 3399,
      "60": 3400,
      "ãģĬãĤĤ": 3401,
      "ä¼¸": 3402,
      "ID": 3403,
      "ãĤĴæĦŁãģĺ": 3404,
      "çļĦãģ«ãģ¯": 3405,
      "tin": 3406,
      "ĠæĪ": 3407,
      "ãģıãģªãģ£ãģŁ": 3408,
      "è¡Ĺ": 3409,
      "æģĲ": 3410,
      "Ġãĥĭ": 3411,
      "âĺĢï¸ı<": 3412,
      "ãģķãĤĮãģ¾ãģĹãģŁ": 3413,
      "PT": 3414,
      "æľĢå¤§": 3415,
      "å®ĩ": 3416,
      "ãģ¨è¨ĢãģĨ": 3417,
      "ãĤĵãģ§ãģĻãģĳãģ©": 3418,
      "ãģ¶ãĤĵ": 3419,
      "ãĤ¯ãĤ¿ãĥ¼": 3420,
      "ãģĨãģĨ": 3421,
      "ãĤ¿ãĤ¤ãĥĹ": 3422,
      "é£Łãģ¹ãģ¦": 3423,
      "ãģ¾ãģĤ": 3424,
      "ãģĹãģ¦ãģ¿": 3425,
      "à¸ħ": 3426,
      "ãģªãģľ": 3427,
      "èĢ³": 3428,
      "èĦ±": 3429,
      "Ġå¾": 3430,
      "å§ī": 3431,
      "éĬĢ": 3432,
      "ä¼ļèŃ°": 3433,
      "Ġãģ¿": 3434,
      "æĪ¸": 3435,
      "íķ": 3436,
      "ĠæĶ": 3437,
      "ãģ®åķ": 3438,
      "ãĤĪãĤĬãĤĤ": 3439,
      "èĩªåĪĨãģĮ": 3440,
      "Ġ0": 3441,
      "ãģ£ãģ¦ãģ¦": 3442,
      "ãĤ¢ãĥ¡": 3443,
      "éĿĻ": 3444,
      "ĠðŁĲ": 3445,
      "èªŃãĤĵãģ§": 3446,
      "ãĤĵãģĭ": 3447,
      "äººãģ¨": 3448,
      "å·¦": 3449,
      "OK": 3450,
      "åĽĽ": 3451,
      "åŃĺåľ¨": 3452,
      "og": 3453,
      "ãģ«è¡Įãģı": 3454,
      "EX": 3455,
      "ãĤĵãģ°ãĤĵãģ¯": 3456,
      "ãģķãģĽãĤĭ": 3457,
      "Ġst": 3458,
      "ãģ®å¼": 3459,
      "è¡¨çı¾": 3460,
      "ãĤ®ãĥ£": 3461,
      "ãĥĥãĤ»ãĥ¼ãĤ¸": 3462,
      "ãĤĴãģĶ": 3463,
      "ãģªãģķ": 3464,
      "âĺħ": 3465,
      "ess": 3466,
      "ç¶ļãģį": 3467,
      "ah": 3468,
      "ãģĹãģĿãģĨ": 3469,
      "éĻ½": 3470,
      "ion": 3471,
      "å®ľãģĹãģı": 3472,
      "é§Ħ": 3473,
      "ãģ©ãĤĤ": 3474,
      "ãģĻãģĻ": 3475,
      "ðŁļ": 3476,
      "åħĲ": 3477,
      "å¾Įãģ«": 3478,
      "ĠTh": 3479,
      "ãģ®åł´ãģ§": 3480,
      "ãĤ¢ãĤ¯": 3481,
      "åĳĬçŁ¥": 3482,
      "EN": 3483,
      "èģ´ãģĦãģ¦": 3484,
      "ĠæĿ¥": 3485,
      "ëĭ": 3486,
      "è²¼": 3487,
      "åĲĪãģĨ": 3488,
      "ãĥĥãĤ¿ãĥ¼": 3489,
      "ãģĹãģªãģĮãĤī": 3490,
      "ãģīãģī": 3491,
      "ãģ«æĿ¥ãģ¦": 3492,
      "åĪ»": 3493,
      "çĻĤ": 3494,
      "ãģ£ãģĹãĤĥ": 3495,
      "åĽº": 3496,
      "åĨħå®¹": 3497,
      "ãģªãģĦãģĭãĤī": 3498,
      "æİ²": 3499,
      "è¦ĭãĤĭ": 3500,
      "ãĤ«ãĥķãĤ§": 3501,
      "with": 3502,
      "æ¥½ãģĹãģĭãģ£ãģŁ": 3503,
      "ãĥ³ãĥĲãĥ¼": 3504,
      "äººæ°Ĺ": 3505,
      "è²·ãģ£ãģŁ": 3506,
      "ãĤ¹ãĤ¿ãĥ¼ãĥĪ": 3507,
      "åŀ¢": 3508,
      "ãĤ¤ãĥ¬": 3509,
      "ãģ¯ãģĺ": 3510,
      "ãĥªãĤ¹ãĥĪ": 3511,
      "ãĤ½ãĥ³": 3512,
      "Ð´": 3513,
      "Ġãģį": 3514,
      "éº»": 3515,
      "!?<": 3516,
      "Ġå°ı": 3517,
      "ĠThe": 3518,
      "æļ´": 3519,
      "ãģ©ãģĨãģŀ": 3520,
      "ãĥŀãĤ¹": 3521,
      "ãĥ¶æľĪ": 3522,
      "Ġ9": 3523,
      "åħĦ": 3524,
      "å¼ģ": 3525,
      "ãĤ¯ãĥ¬": 3526,
      "ãĥķãĤ¡ãĥ³": 3527,
      "åĽł": 3528,
      "ä¹ĹãĤĬ": 3529,
      "ãĥ¼ãģĻ": 3530,
      "åº·": 3531,
      "ãģ£ãģ¦ãģĦ": 3532,
      "ãĥ³ãĥĦ": 3533,
      "ãģķãĤĮãģ¦ãĤĭ": 3534,
      "ãĤįãĤĵ": 3535,
      "åį±": 3536,
      "ä½¿çĶ¨": 3537,
      "!!ï¸ı!!ï¸ı": 3538,
      "ãģĬçŁ¥ãĤīãģĽ": 3539,
      "åĲĳãģĳ": 3540,
      "åįĹ": 3541,
      "!!!!<": 3542,
      "è²·ãģĨ": 3543,
      "ãģªãģıãģ¦ãĤĤ": 3544,
      "ĠâĶ": 3545,
      "å·±": 3546,
      "ãģĮãģĬ": 3547,
      "ĠãģŁãģł": 3548,
      "Amazon": 3549,
      "ãĤ³ãĥ³ãĥ": 3550,
      "çµĦãģ¿": 3551,
      "çļĨãģķãĤĵ": 3552,
      "è§Ĵ": 3553,
      "ðŁĲ°": 3554,
      "èª°ãģĭ": 3555,
      "Ġ8": 3556,
      "äºĭãĤĴ": 3557,
      "âĻ¥": 3558,
      "Ġæ¬¡": 3559,
      "æĿ¯": 3560,
      "ãĥĩãĤ¶ãĤ¤ãĥ³": 3561,
      "ĠãĥĽ": 3562,
      "ãĥķãĥ©": 3563,
      "ãģªãĤĬ": 3564,
      "ãģ£ãģ¦ãģĦãģŁ": 3565,
      "ãĥļãĥ¼ãĤ¸": 3566,
      "Ġthis": 3567,
      "åķĨåĵģ": 3568,
      "ãĤĬè¿Ķ": 3569,
      "ãģ¤ãģĳãģ¦": 3570,
      "åİŁç¥ŀ": 3571,
      "ãģ®ãĤĴ": 3572,
      "ãģ®å¹": 3573,
      "çĻ¾": 3574,
      "Ġ[": 3575,
      "ãĤĨãģ£ãģıãĤĬ": 3576,
      "ãģ£ãģ¡ãĤĥãģĨ": 3577,
      "SS": 3578,
      "åłĤ": 3579,
      "é«ĺæł¡": 3580,
      "ãĥģãĥ£ãĥ³ãĤ¹": 3581,
      "AT": 3582,
      "ok": 3583,
      "ĠâĨĵ": 3584,
      "ãĤĵãģĺãĤĥãģªãģĦ": 3585,
      "çĪ¶": 3586,
      "ãĤĵãģ«ãģ¡ãģ¯": 3587,
      "å±ŀ": 3588,
      "Ġthat": 3589,
      "çŁŃ": 3590,
      "ĠãĤĴãĥķãĤ©ãĥŃãĥ¼": 3591,
      "ãģ¯ãĤĬ": 3592,
      "ãģĮãģĤãĤĬ": 3593,
      "ðŁĴķ<": 3594,
      "ãģ¨ãģ£ãģ¦": 3595,
      "éģ¿": 3596,
      "ãģ®ãĤµ": 3597,
      "27": 3598,
      "ãģĮå¥½ãģį": 3599,
      "çĶŁãģ¾": 3600,
      "ãģªãģıãģªãĤĭ": 3601,
      "ort": 3602,
      "åıįå¿ľ": 3603,
      "ðŁĺį": 3604,
      "qu": 3605,
      "ãĤĵãģ§ãģĻãģĮ": 3606,
      "ee": 3607,
      "ÌĢ": 3608,
      "åĲī": 3609,
      "âĹĭâĹĭ": 3610,
      "ĠãĤ¦": 3611,
      "èª¤": 3612,
      "ç¾İåĳ³ãģĹãģĦ": 3613,
      "ä¸Ńãģ®": 3614,
      "ãģ¾ãģķ": 3615,
      "æ©Łèĥ½": 3616,
      "ãģ¨åĲĮãģĺ": 3617,
      "åĲ¸": 3618,
      "æľŁå¾ħ": 3619,
      "ãģĮåĩºãģ¦": 3620,
      "ä½ľãĤĬ": 3621,
      "ãĢħãģ«": 3622,
      "26": 3623,
      "éį": 3624,
      "ãĤĴæ±": 3625,
      "Ġãģ²": 3626,
      "ate": 3627,
      "ãĥ¼ãĥģãĥ£": 3628,
      "ĠãĥĿ": 3629,
      "å®ļæľŁ": 3630,
      "åĪĹ": 3631,
      "¥ĳ": 3632,
      "ä»¤": 3633,
      "èī¦": 3634,
      "OR": 3635,
      "ľŁ": 3636,
      "å¤©æ°Ĺ": 3637,
      "ãĥ¼ãĥ¬": 3638,
      "å¸Ń": 3639,
      "çĽĽãĤĬ": 3640,
      "çŃĭ": 3641,
      "ðŁĺĤ<": 3642,
      "æĤ©": 3643,
      "ãģ®å·": 3644,
      "ä¹³": 3645,
      "ĠãĤ¿": 3646,
      "äº¡": 3647,
      "ãģ®æİ": 3648,
      "ãĥģãĥ£ãĥ¬ãĥ³ãĤ¸": 3649,
      "ĠãģĬãģ¯ãĤĪãĥ¼": 3650,
      "Ġwith": 3651,
      "åŁŁ": 3652,
      "ãĤ¢ãĤ¢": 3653,
      "Ġç§ģãģ¯": 3654,
      "Ġãģ»": 3655,
      "åł±åĳĬ": 3656,
      "ãĤĮãģ¾ãģĽãĤĵ": 3657,
      "çķ¥": 3658,
      "Ġåīį": 3659,
      "ãģĹãģĭãģĹ": 3660,
      "ãĥªãĥ¼ãĤ¹": 3661,
      "è¾ŀ": 3662,
      "ãĥĿãĤ¤ãĥ³ãĥĪ": 3663,
      "ie": 3664,
      "ãĤĵãģĺãĤĥ": 3665,
      "½¢": 3666,
      "ãĢĤãĢĤãĢĤ": 3667,
      "pl": 3668,
      "åıĤåĬłæĸ¹æ³ķ": 3669,
      "Ġby": 3670,
      "ãģĹãģ¦ãģıãĤĮãĤĭ": 3671,
      "ãĥĮ": 3672,
      "ãģ¨æĢĿãģ£ãģŁãĤī": 3673,
      "æīį": 3674,
      "âĻ¡<": 3675,
      "ĠçŁ": 3676,
      "æģĭ": 3677,
      "çĦ¼ãģį": 3678,
      "ãĤ¬ãĥ³": 3679,
      "ĠTwitter": 3680,
      "ãĤ¢ãĥĹãĥª": 3681,
      "çı¾åľ¨": 3682,
      "ãĤ¡ãĤ¡": 3683,
      "ç§ģãģĮ": 3684,
      "Ġ...": 3685,
      "ãĤĵãģ§ãĤĤ": 3686,
      "ãģĿãĤĮãĤĴ": 3687,
      "ãģ®ãĥĲ": 3688,
      "ãģ¾ãģģ": 3689,
      "ç°¡åįĺ": 3690,
      "Ġãĥ¢": 3691,
      "ĠæĹ¥": 3692,
      "Ġãģ¡ãĤĩãģ£ãģ¨": 3693,
      "æ°Ĺæ¸©": 3694,
      "ãĥĭãĥ¼": 3695,
      "ãĥĨãĥ¬ãĥĵ": 3696,
      "åĲįæ§ĺãģ«ãĥĹãĥ¬ãĤ¼ãĥ³ãĥĪ": 3697,
      "ãģĭãĤīãģ¯": 3698,
      "åĩºãģĹãģ¦": 3699,
      "Ġãģľãģ²": 3700,
      "ãĥ¼ãĥĭ": 3701,
      "éļł": 3702,
      "Ġ*": 3703,
      "!?!?": 3704,
      "è²¬": 3705,
      "!!!!!!!!!!!!!!!!": 3706,
      "hone": 3707,
      "ãģĦãģŁãģłãģį": 3708,
      "Ġå¿ľåĭŁ": 3709,
      "endo": 3710,
      "ãĤªãĥªãĤ¸ãĥĬãĥ«": 3711,
      "ãĥ´ãĤ¡": 3712,
      "ãģ¨ãĤĬãģĤãģĪãģļ": 3713,
      "ãĤ¨ãĥ³ãĤ¸": 3714,
      "èŃ²": 3715,
      "ãģŃãģĵ": 3716,
      "æĳ": 3717,
      "å®ĺ": 3718,
      "ãģĻãģį": 3719,
      "Ġç·": 3720,
      "Ġãĥ©ãĥ³ãĤ¯": 3721,
      "ãĥ¼ãĥ¡ãĥ³": 3722,
      "ãģĻãģĻãĤģ": 3723,
      "ãģ®æĸ°": 3724,
      "è¨İ": 3725,
      "ãĤ¿ãĥ³": 3726,
      "éļİ": 3727,
      "æī±": 3728,
      "äºĭãģĮ": 3729,
      "çīĩ": 3730,
      "åĳĤ": 3731,
      "Ġç¥": 3732,
      "ãĤıãģĭãĤīãģªãģĦ": 3733,
      "éģ¸æĮĻ": 3734,
      "ãĤ·ãĥ¼ãĥ³": 3735,
      "æķĳ": 3736,
      "ãģ®å£°": 3737,
      "éłĺ": 3738,
      "ãģĭãģªãģĭ": 3739,
      ":-": 3740,
      "ãģ®åĩº": 3741,
      "ãģıãģªãģ£ãģ¦": 3742,
      "Ġ_": 3743,
      "ãĤ¤ãĥĨ": 3744,
      "Tuber": 3745,
      "ãĤ·ãĥ³": 3746,
      "intendo": 3747,
      "ãĥ³ãĥĸ": 3748,
      "åº«": 3749,
      "Ġãģĵãģĵ": 3750,
      "Ġan": 3751,
      "ãģªãĥ¼": 3752,
      "éĸĵéļĶ": 3753,
      "âĢķ": 3754,
      "ðŁĴĹ": 3755,
      "æĨ¶": 3756,
      "ãĢĩ": 3757,
      "ãĢĤãĢĮ": 3758,
      "éłĨ": 3759,
      "ore": 3760,
      "æ¨Ļ": 3761,
      "çµĤãĤıãĤĬ": 3762,
      "©Ł": 3763,
      "ĠãĥĢ": 3764,
      "ãĤµãĥ³": 3765,
      "æĦıèŃĺ": 3766,
      "ç´łæķµãģª": 3767,
      "ç«ł": 3768,
      "åĬĩ": 3769,
      "ãĤ¦ãĤ¹": 3770,
      "ãĥ¼ãĥĵãĤ¹": 3771,
      "IC": 3772,
      "å¥Ī": 3773,
      "()<": 3774,
      "ãĤ¯ãĥªãĤ¹ãĥŀ": 3775,
      "ãģĬåīį": 3776,
      "æģ¯": 3777,
      "Ġç§ģãĤĤ": 3778,
      "ãģ®ãģĶ": 3779,
      "ãĤ¦ãĥĪ": 3780,
      "ãĤĴãģĹãģ¦": 3781,
      "Ġãĥľ": 3782,
      "ãģ®ãģ§ãģĻ": 3783,
      "ãĤ·ãĥ¼": 3784,
      "ðŁĺģ": 3785,
      "ãģĵãĤĮãģ§": 3786,
      "èĶ": 3787,
      "çĽ®æĮĩ": 3788,
      "ĠãģĿãĤĮãģ¯": 3789,
      "ation": 3790,
      "ãĤıãģĭ": 3791,
      ";)": 3792,
      "ãĤ¹ãĥ¡": 3793,
      "ãĥĦãĤ¤ãĥ¼ãĥĪãĤĴRT": 3794,
      "ãĤ¤ãĥĦ": 3795,
      "ity": 3796,
      "ãģ¤ãģĭãĤĮ": 3797,
      "ãĥģãĤ§ãĥĥãĤ¯": 3798,
      "å®£": 3799,
      "ãĤ¤ãĥīãĥ«": 3800,
      "ðŁ¤£ðŁ¤£": 3801,
      "åħ¸": 3802,
      "Ġåĩº": 3803,
      "ãģĦãģ¾ãģĽãĤĵ": 3804,
      "å¥³åŃĲ": 3805,
      "ãģ®ãĤ«": 3806,
      "ãģ®ãģĵãģ¨": 3807,
      "éŃļ": 3808,
      "çĬ¶æ³ģ": 3809,
      "Ġat": 3810,
      "Ġæī": 3811,
      "ãģ§ãģįãģ¾ãģĻ": 3812,
      "Ġwe": 3813,
      "ãģ£ãģ¡ãĤĥãģ£ãģŁ": 3814,
      "ĠãģĬãĤĦãģĻãģ¿ãģªãģķãģĦ": 3815,
      "ãģ®åĽ½": 3816,
      "æľĢå¼·": 3817,
      "åĲ¦": 3818,
      "å§¿": 3819,
      "éľ²": 3820,
      "æ··": 3821,
      "ãģĪãģĪãģĪãģĪ": 3822,
      "ãģĮå¢Ĺ": 3823,
      "ãģªãģĦãģĳãģ©": 3824,
      "ç§ģãĤĤ": 3825,
      "æĬķç¥¨": 3826,
      "çĩ": 3827,
      "Ġå¸": 3828,
      "å¸¯": 3829,
      "æĬŀ": 3830,
      "ãĤ¤ãĥ³ãĤ¿": 3831,
      "çī¹ãģ«": 3832,
      "å¿«": 3833,
      "ãĤŃãĥ³ãĤ°": 3834,
      "å¤ķ": 3835,
      "ãģĦãģ£ãģ±ãģĦ": 3836,
      "ãģ®ä¸Ĭ": 3837,
      "ãģıãĤī": 3838,
      "ãĤªãĤ¹": 3839,
      "æ´Ĺ": 3840,
      "ãģ®ãĥĳ": 3841,
      "ãĥ¼ãĤ¿ãĥ¼": 3842,
      "çĭĤ": 3843,
      "ä½ľãģ£ãģ¦": 3844,
      "åħµ": 3845,
      "è¤ĩ": 3846,
      "ack": 3847,
      "ĠãģĵãģĨ": 3848,
      "ãģĹãģĭãĤĤ": 3849,
      "ul": 3850,
      "ãģĻãĤī": 3851,
      "ãģ®ä¸Ńãģ§": 3852,
      "è©ŀ": 3853,
      "åī£": 3854,
      "å§ĭãĤģ": 3855,
      "ãģĹãģŁæķ°": 3856,
      "1000": 3857,
      "ãģĹãģıãģ¦": 3858,
      "Â·": 3859,
      "è¨º": 3860,
      "~~~~": 3861,
      "å¸¸ãģ«": 3862,
      "ãģªãĤĵãģ§ãģĻ": 3863,
      "ãģĹãģ¾ãģĹãĤĩãģĨ": 3864,
      "ãģªãĤīãģªãģĦ": 3865,
      "ãģ¨ãģĬ": 3866,
      "åħ«": 3867,
      "å¤§åĪĩ": 3868,
      "åħ¥ãĤĮãģ¦": 3869,
      "æļĳ": 3870,
      "åĤ·": 3871,
      "ãģĿãĤĤãģĿãĤĤ": 3872,
      "ãģ®ãģŁãĤģ": 3873,
      "ãģĭãģ£ãģĵ": 3874,
      "èĢħãģ¯": 3875,
      "ãĥĿãĥ¼ãĥĪ": 3876,
      "çµĤãĤıãģ£ãģŁ": 3877,
      "æĬĢè¡ĵ": 3878,
      "ãģ®ãĤĪãģĨãģª": 3879,
      "ä½Ĳ": 3880,
      "ç·´ç¿Ĵ": 3881,
      "ãĤ¹ãĤ±": 3882,
      "ãĤ¯ãĥ«": 3883,
      "æ°¸": 3884,
      "ãģĭãģªãģģ": 3885,
      "ãĥĦãĤ¤ãĥ¼ãĥĪéĸĵéļĶ": 3886,
      "èĬ¸": 3887,
      "å®¶æĹı": 3888,
      "Ġç¾İ": 3889,
      "ere": 3890,
      "ä¹ħãģĹãģ¶ãĤĬãģ«": 3891,
      "Ġà¥ĳ": 3892,
      "ãĤ²ãĥ¼": 3893,
      "åİ³": 3894,
      "ÍĪ": 3895,
      "ä¹±": 3896,
      "Ġãĥ©ãĥ³ãĤ¯å¤ĸ": 3897,
      "ãĥ¬ãĤ¤": 3898,
      "è¿ĳãģı": 3899,
      "2021": 3900,
      "ãĥ³ãĥľ": 3901,
      "iv": 3902,
      "ðŁ¥²": 3903,
      "ood": 3904,
      "ãĥŃãĥľ": 3905,
      "ãĥ³ãĥĢãĥł": 3906,
      "¹¿": 3907,
      "ðŁĲ±": 3908,
      "ĠÌģêĴ³": 3909,
      "200": 3910,
      "Ġãģ£ãģ¦": 3911,
      "ãģ¾ãĤĵ": 3912,
      "ãģłãģ£ãģŁãĤī": 3913,
      "ðŁĺĨ<": 3914,
      "ãģ«åĲĳ": 3915,
      "29": 3916,
      "ãģĹãģ£ãģĭãĤĬ": 3917,
      "è©±é¡Į": 3918,
      "ĠåħĪ": 3919,
      "âĭ": 3920,
      "æ°Ĺãģ«ãģªãĤĭ": 3921,
      "GB": 3922,
      "ãĥĥãĥĥ": 3923,
      "ãĥĩãĥ¼ãĥĪ": 3924,
      "ä½ĵé¨ĵ": 3925,
      "âĶĢâĶĢ": 3926,
      "åĪĨãģĭãĤīãģªãģĦ": 3927,
      "ãģ¦ãģŁ": 3928,
      "Ġä»ĬéĢ±": 3929,
      "ãĤĬãĤĥ": 3930,
      "æŃ»ãģ¬": 3931,
      "åĩĦãģĦ": 3932,
      "ank": 3933,
      "ãĤĦãĤĬãģŁãģĦ": 3934,
      "è¨ĺæĨ¶": 3935,
      "çµĲå©ļ": 3936,
      "ç´Ķ": 3937,
      "ãģ¨ãģĹãģŁ": 3938,
      "ãģ¯ãģĤãĤĭ": 3939,
      "èıľ": 3940,
      "ãĤģãģ¾ãģĹãģ¦": 3941,
      "çĶ³ãģĹè¨³": 3942,
      "ª¨": 3943,
      "å¤īæĽ´": 3944,
      "ĠðŁ¤": 3945,
      "ĠâĨĴ": 3946,
      "ðŁĺ¢": 3947,
      "ãĥ¼ãĤ«ãĥ¼": 3948,
      "ãĤ¯ãĥªãĤ¢": 3949,
      "500": 3950,
      "...ãĢį": 3951,
      "ãģıãģ¨": 3952,
      "ãģĵãģ®æĬķç¨¿": 3953,
      "se": 3954,
      "åĬĽãĤĴ": 3955,
      "ãĤ¹ãĥĶ": 3956,
      "éĸī": 3957,
      "ıé¡Į": 3958,
      "å®¿": 3959,
      "æĺłåĥı": 3960,
      "æīĵãģ¡": 3961,
      "ãĥĲãĥĥ": 3962,
      "é½¢": 3963,
      "ãĤĦãĤģ": 3964,
      "äººäºº": 3965,
      "ãĤ¿ãĤ°": 3966,
      "ãĥĵãĥ¥ãĥ¼": 3967,
      "ĠãĤĪãĤįãģĹãģıãģĬé¡ĺãģĦãģĹãģ¾ãģĻ": 3968,
      "çı": 3969,
      "ãģ«ãģĹãģŁ": 3970,
      "è¾¼ãĤĵãģ§": 3971,
      "æĦŁæŁĵ": 3972,
      "ðŁĴ¦<": 3973,
      "Ġå¥½": 3974,
      "ä»Ĭå¾Į": 3975,
      "éĻ°": 3976,
      "èªĺ": 3977,
      "ãĤ¢ãĥ³": 3978,
      "ãĥģãĥ£ãĥ³ãĥįãĥ«": 3979,
      "è¼ª": 3980,
      "ãĤļ)": 3981,
      "ãĥĪãĥŃ": 3982,
      "orld": 3983,
      "Ġ.": 3984,
      "ãĥŀãĤ¹ãĤ¯": 3985,
      "St": 3986,
      "çĻºè¨Ģ": 3987,
      "åĽ½æ°ĳ": 3988,
      "ĠÐ": 3989,
      "ãģ¤ãģį": 3990,
      "æ©ĭ": 3991,
      "ðŁ¤Ķ<": 3992,
      "ãģ¾ãģ¨ãĤģ": 3993,
      "Switch": 3994,
      "ĠæľĿ": 3995,
      "åħħ": 3996,
      "ãģĲãĤĭ": 3997,
      "âľ§": 3998,
      "ðŁĴĸ": 3999,
      "åĬĽãģĮ": 4000,
      "ç¶Ļ": 4001,
      "Nintendo": 4002,
      "ãĤĵãģĵ": 4003,
      "ãĤĵãģ§ãģĻãĤĪãģŃ": 4004,
      "ãĤ¢ãĥĲãĤ¿ãĥ¼": 4005,
      "æĮĳ": 4006,
      "OP": 4007,
      "é¢¨åĳĤ": 4008,
      "æĻ´ãĤīãģĹãģĦ": 4009,
      "Ĥª": 4010,
      "ãĤ®ãĥª": 4011,
      "ðŁĴĵ": 4012,
      "èĪ¹": 4013,
      "rom": 4014,
      "é§Ĩ": 4015,
      "ãģ¦ãģ¦": 4016,
      "ãģ¾ãģĦ": 4017,
      "å®Ļ": 4018,
      "Ġå·": 4019,
      "çķªçµĦ": 4020,
      "ĠâĿ": 4021,
      "æııãģĦãģ¦": 4022,
      "è¢ĭ": 4023,
      "ãģ¨ãģĻãĤĭ": 4024,
      "ãĤ¹ãĥ¼ãĥĳ": 4025,
      "è±ª": 4026,
      "ãĥ©ãĤ¸ãĤª": 4027,
      "Ġ'": 4028,
      "ave": 4029,
      "ãĤĵãģ§ãģĹãģŁ": 4030,
      "ãĥģãĥ¼ãĥł": 4031,
      "ãĤ¦ãĥ«": 4032,
      "éŁĵ": 4033,
      "ãģĵãĤĮãģĮ": 4034,
      "ãĤĵãģ§ãģĻãģŃ": 4035,
      "è²¡": 4036,
      "ä½¿ãģ£ãģ¦": 4037,
      "ä½ĵèª¿": 4038,
      ")ãĢį": 4039,
      "ËĬ": 4040,
      "ãĤ¯ãĤ¨": 4041,
      "èģĸ": 4042,
      "éĢĥãģĴ": 4043,
      "ãĥ³ãĤº": 4044,
      "è±Ĩ": 4045,
      "å®Įåħ¨ãģ«": 4046,
      "ãģ®åĨĻçľŁ": 4047,
      "äºĭãģ«": 4048,
      "éĽĳè«ĩ": 4049,
      "ãĤĬãģĻãĤĭ": 4050,
      "æ´¥": 4051,
      "æĪ¦äºī": 4052,
      "ä¸Ńãģ§": 4053,
      "çĽ£": 4054,
      "ç«¶": 4055,
      "çĶŁæĶ¾éĢģ": 4056,
      "ãģ®æµ": 4057,
      "ãģ®æĮ": 4058,
      "æ³ī": 4059,
      "æľªæĿ¥": 4060,
      "ãĤ¯ãĥªãĤ¹ãĥŀãĤ¹": 4061,
      "ãģĪãģ¾ãģĻ": 4062,
      "ãĥŃãĥ¼ãĥī": 4063,
      "ET": 4064,
      "GPT": 4065,
      "è¬Ľ": 4066,
      "Ġâľħ": 4067,
      "âŃĲ": 4068,
      "å¤§éĺª": 4069,
      "ä¸Ģåº¦": 4070,
      "ãģ®ãĤ³": 4071,
      "ĥħ": 4072,
      "ãģĹãģ¦ãģ¦": 4073,
      "ine": 4074,
      "æĿ¿": 4075,
      "èį·": 4076,
      "ãģĺãģķãĤĵ": 4077,
      "§ĺ": 4078,
      "ÐĶ": 4079,
      "ãĥĲãĤ¤": 4080,
      "ä¿¡ãģĺ": 4081,
      "Ġãģ¨ãģĦãģĨ": 4082,
      "ãĤ·ãĤ§": 4083,
      "æ°Ĺãģ«åħ¥": 4084,
      "é£Łãģ¹ãĤĭ": 4085,
      "sm": 4086,
      "Ġãĥį": 4087,
      "æ¡ľ": 4088,
      "Ì¥": 4089,
      "é©ļ": 4090,
      "Ġåħ¨": 4091,
      "ãĥ¼ãĤ¶": 4092,
      "NS": 4093,
      "åĨĻ": 4094,
      "æĦŁæĥ³": 4095,
      "èĭ±èªŀ": 4096,
      "è¢«å®³": 4097,
      "ĠãģªãĤĭãģ»ãģ©": 4098,
      "ãĥĸãĥ¬": 4099,
      "ĠæĬ½éģ¸ãģ§": 4100,
      "Ġå±": 4101,
      "ãģ¤ãģ¤": 4102,
      "æµ®": 4103,
      "ãĤ¹ãĥĨãĥł": 4104,
      "æ£®": 4105,
      ":+": 4106,
      "IT": 4107,
      "ãĤĦãģ°ãģĦ": 4108,
      "ãĤĪãģĹ": 4109,
      "ãģłãĤĪãģŃ": 4110,
      "ãĥŃãĤ·ãĤ¢": 4111,
      "ãĥŀãĤ¤": 4112,
      "ãģ©ãģĨãģĭ": 4113,
      "æ¸¬": 4114,
      "å¤±æķĹ": 4115,
      "ting": 4116,
      "ãģķãģªãģĦ": 4117,
      "å¯¿": 4118,
      "èªķçĶŁæĹ¥ãģĬãĤģãģ§ãģ¨ãģĨãģĶãģĸãģĦãģ¾ãģĻ": 4119,
      "è«ĭ": 4120,
      "ãĤĴæĶ": 4121,
      "ĠãģķãĤĵ": 4122,
      "è©±ãĤĴ": 4123,
      "ãģĦãģ¡": 4124,
      "ãģªãģ«": 4125,
      "Ġ12": 4126,
      "ãĥ©ãĤ¹": 4127,
      "Ġwh": 4128,
      "ç·Ĭ": 4129,
      "ãģĳãģ°": 4130,
      "ãĥĪãĤ¥": 4131,
      "å°Ĩ": 4132,
      "çĽ®ãģ®": 4133,
      "áĲ¢": 4134,
      "80": 4135,
      "?)": 4136,
      "ãģŁãģ®": 4137,
      "å¯Ĩ": 4138,
      "è£ķ": 4139,
      "VTuber": 4140,
      "Ġçī¹": 4141,
      "Ġéħįä¿¡": 4142,
      "ãģĭãģĴ": 4143,
      "èŃ°åĵ¡": 4144,
      "ãģ«å¯¾ãģĹãģ¦": 4145,
      "^^": 4146,
      "Ġæľ¬å½ĵãģ«": 4147,
      "ãĥĥãĥĶ": 4148,
      "ãģĶé£¯": 4149,
      "é³´": 4150,
      "è¸Ĭ": 4151,
      "ãģ¡ãĤĥãĤĵãģĮ": 4152,
      "ãģĹãģķ": 4153,
      "åĲ¹": 4154,
      "ç¾½": 4155,
      "ĠSt": 4156,
      "å´©": 4157,
      "AC": 4158,
      "ãĤıãģĸ": 4159,
      "ãģĵãģ¨ãĤĤ": 4160,
      "ãĥ©ãĥ¼ãĥ¡ãĥ³": 4161,
      "åĪĨãģĭãĤĭ": 4162,
      "èĢĲ": 4163,
      "UR": 4164,
      "ãģĦãģĭ": 4165,
      "Ġæ±": 4166,
      "âĮ": 4167,
      "æĻĤæľŁ": 4168,
      "æĬ½éģ¸ãģ§": 4169,
      "ãģĹãģ¦ãģįãģŁ": 4170,
      "âĹı": 4171,
      "Ëĭ": 4172,
      "ãģĤãĤĮãģ°": 4173,
      "ãĥĬãĥ¼": 4174,
      "ãĥ©ãĤ¤ãĥĢ": 4175,
      "éģĭè»¢": 4176,
      "ðŁĳį<": 4177,
      "ãĥĥãĥĦ": 4178,
      "ãĥŁãĥ¥": 4179,
      "Ġj": 4180,
      "ç§°": 4181,
      "è¡Įåĭķ": 4182,
      "ãģĦãģŁãģłãģįãģ¾ãģĹãģŁ": 4183,
      "æĨ²": 4184,
      "ãĤªãĥ³ãĥ©ãĤ¤ãĥ³": 4185,
      "BO": 4186,
      "ãģ®å¥³": 4187,
      "¦Ĥ": 4188,
      "å®īå¿ĥ": 4189,
      "çµĮæ¸Ī": 4190,
      "ãĤ¯ãĥ©ãĤ¤ãĥ": 4191,
      "ĠãĥĬ": 4192,
      "æįķ": 4193,
      "ãĤĴåıĹ": 4194,
      "ĠãĤ¬": 4195,
      "ĠãĤģãģ£ãģ¡ãĤĥ": 4196,
      "ãģĦãģĪãģ°": 4197,
      "ä¼ļåł´": 4198,
      "ãĤĤãģ®ãģ¯": 4199,
      "ãĥ¼ãĥĴ": 4200,
      "ä½ĵãģĮ": 4201,
      "ker": 4202,
      "ãĥ«ãģ®": 4203,
      "ãģĽãģªãģĦ": 4204,
      "æ°ĹãĤĴãģ¤ãģĳãģ¦": 4205,
      "æ²¢å±±": 4206,
      "å®ĩå®Ļ": 4207,
      "æ¯Ľ": 4208,
      "è§£èª¬": 4209,
      "çµµæııãģį": 4210,
      "è¶³ãĤĬ": 4211,
      "ãģ¯ä½ķ": 4212,
      "----": 4213,
      "ä¸ģ": 4214,
      "æ°ĹåĪĨ": 4215,
      "æĹ¥æľ¬ãģ®": 4216,
      "ãģªãģ£ãģŁ": 4217,
      "ãģ¿ãģ¾ãģĹãģŁ": 4218,
      "ãģ®å±": 4219,
      "IVE": 4220,
      "¾į": 4221,
      "åīĬ": 4222,
      "çĻºçĶŁ": 4223,
      "ai": 4224,
      "Ð¾": 4225,
      "æĸĻçĲĨ": 4226,
      "è¸ı": 4227,
      "åıĬ": 4228,
      "HK": 4229,
      "å°Ħ": 4230,
      "Ġãģ¾ãģģ": 4231,
      "ãģĦãģį": 4232,
      "ãģıãģ¾": 4233,
      "ãĤĵãģ§ãģĻãĤĪ": 4234,
      "ä»ĺãģĳãģ¦": 4235,
      "å»º": 4236,
      "å½ĵéģ¸": 4237,
      "ĠãģĤãĤĬãģĮãģ¨": 4238,
      "ãĥŃãĤ°": 4239,
      "å¯¾çŃĸ": 4240,
      "ãĤµãĥ¼ãĥĵãĤ¹": 4241,
      "æºĸåĤĻ": 4242,
      "MA": 4243,
      "ãĤīãģ£ãģĹãĤĥ": 4244,
      "ãģĽãĤĵ": 4245,
      "ðŁ¥¹": 4246,
      "^)/": 4247,
      "è©ķä¾¡": 4248,
      "ç¬ĳç¬ĳ": 4249,
      "åĪ¥ãģ«": 4250,
      "æĶ¿æ²»": 4251,
      ">...<": 4252,
      "è¨Ģãģ£ãģ¦ãĤĭ": 4253,
      "èĩªå·±": 4254,
      "æħ£": 4255,
      "èĢħãģ«": 4256,
      "æĮģãģ£ãģ¦": 4257,
      "ãģ§ãģĻãģĭãģŃ": 4258,
      "ãģ©ãģ£ãģ¡": 4259,
      "è¡Įãģ£ãģŁ": 4260,
      "éĽ»è©±": 4261,
      "éĢŁåł±": 4262,
      "æ¤ľç´¢": 4263,
      "æııãģĦãģŁ": 4264,
      "ãĥĨãĤ¹ãĥĪ": 4265,
      "ĠÎ": 4266,
      "ãģŃãĤĵ": 4267,
      "èĩªèº«": 4268,
      "ãģĭãģ¨": 4269,
      "ãģĮãĤĭ": 4270,
      "ãĤ¹ãĥĹãĥ©": 4271,
      "ãĥŁãĥĭ": 4272,
      "ãĤ·ãĤ¹ãĥĨãĥł": 4273,
      "ãĤĤãģ®ãĤĴ": 4274,
      "ip": 4275,
      "åĿĤ": 4276,
      "...!<": 4277,
      "ord": 4278,
      "æ´ĭ": 4279,
      "çģ½": 4280,
      "ðŁĺĥ<": 4281,
      "ĠæŃ£": 4282,
      "åŁºæľ¬": 4283,
      "ãģ£ãģ¦æĦŁãģĺ": 4284,
      "ãĤĮãģ¦ãģĦãĤĭ": 4285,
      "ĠåİŁ": 4286,
      "å®īåħ¨": 4287,
      "31": 4288,
      "ãĥ¨ãĤ·": 4289,
      "æ°ĹãĤĴ": 4290,
      "ãģĺãĤĥãģĤ": 4291,
      "ãģĨãģ©": 4292,
      "ãĤªãĤ¿ãĤ¯": 4293,
      "ãģ¹ãĤĭ": 4294,
      "Ġç¢º": 4295,
      "äºĭä»¶": 4296,
      "å½ĵãģŁãĤĬ": 4297,
      "è¤Ĵ": 4298,
      "ãĤ¢ãĥ¬": 4299,
      "ãĥ¢ãĥİ": 4300,
      "ant": 4301,
      "æĦıè¦ĭ": 4302,
      "ãģĹãģ«": 4303,
      "ãĤ½ãĥķãĥĪ": 4304,
      "åıįå¯¾": 4305,
      "ãĤĮãģ©": 4306,
      "æĢĿãģ£ãģŁ": 4307,
      "ãģķãģĽãģ¦éłĤ": 4308,
      "çŃĨ": 4309,
      "åĨĨåĪĨ": 4310,
      "åĺĺ": 4311,
      "ĠæľĢé«ĺ": 4312,
      "ãģĮãģĦãģĦ": 4313,
      "ãĤĤãģĬ": 4314,
      "ãĥŁãĤ¹": 4315,
      "åĨ¬": 4316,
      "ãĥ»ãĥ»ãĥ»<": 4317,
      "Pay": 4318,
      "ãģ¾ãģĽãĤĵãģ§ãģĹãģŁ": 4319,
      "Ġãģ¡ãģªãģ¿ãģ«": 4320,
      "ãĥĲãĤ«": 4321,
      "ãģ§ãģĦãģĦ": 4322,
      "ãģłãĤı": 4323,
      "ãĤ«ãĥ¡ãĥ©": 4324,
      "ãĥ³ãĥı": 4325,
      "çĶ»éĿ¢": 4326,
      "é¹¿": 4327,
      "ãģ®ãĥª": 4328,
      "ä½ľãĤĭ": 4329,
      "ç²ī": 4330,
      "ãģ¿ãģŁãģĦãģ«": 4331,
      "ä¾Ŀéł¼": 4332,
      "æļĩ": 4333,
      "åĪĬ": 4334,
      "æĸ¹ãģĮãģĦãģĦ": 4335,
      "ear": 4336,
      "ãĤĮãĤĵ": 4337,
      "çīĽ": 4338,
      "ãĤĵãģłãĤĪãģª": 4339,
      "æ²¹": 4340,
      "äº¬éĥ½": 4341,
      "ãĤĮãģ¾ãģĻ": 4342,
      "åı©": 4343,
      "INE": 4344,
      "Ġi": 4345,
      "ãĤ¯ãĤ¤ãĤº": 4346,
      "Ġsh": 4347,
      "ãĥ«ãĥĢ": 4348,
      "Ġé«ĺ": 4349,
      "Ġèī¯ãģĦ": 4350,
      "Ģĭ": 4351,
      "æĦŁè¦ļ": 4352,
      "ãĥĥãĤ·ãĥ§ãĥ³": 4353,
      "é¤Ĭ": 4354,
      "ãĥĸãĥ«ãĤ¢ãĤ«": 4355,
      "Ġæ°´": 4356,
      "åĩºãĤĭ": 4357,
      "çłĤ": 4358,
      "çĤİ": 4359,
      "ä»¥ä¸ĭ": 4360,
      "ãģĮå¤ļãģĦ": 4361,
      "è£ģ": 4362,
      "RTãģ§": 4363,
      "ãĤ¯ãĥ©ãĤ¤ãĥĬ": 4364,
      "ãĤıãģĭãĤīãĤĵ": 4365,
      "Ġåĳ": 4366,
      "åĬŁ": 4367,
      "éĽ»è»Ĭ": 4368,
      "åĭĿæīĭãģ«": 4369,
      "ãĤĴæĭ": 4370,
      "ä¼Ĭ": 4371,
      "åĩºãģĹãģŁ": 4372,
      "å»¶": 4373,
      "ãĥĥãĤ¿": 4374,
      "ç²¾ç¥ŀ": 4375,
      ">(": 4376,
      "è¿İãģĪ": 4377,
      "ãĥ»`)": 4378,
      "ä»ĸãģ®": 4379,
      "ãĤĪãĤįãģĹãģıãģĬé¡ĺãģĦãģĦãģŁãģĹãģ¾ãģĻ": 4380,
      "ĠãĤĻ": 4381,
      "Ġare": 4382,
      "ðŁĺī": 4383,
      "çĻĸ": 4384,
      "å¯ĿãĤĭ": 4385,
      "çı¾å®Ł": 4386,
      "ãģ®ãģŁãĤģãģ«": 4387,
      "ãĥ¼ãĥľ": 4388,
      "éľĬ": 4389,
      "ãģĬãģ¯ãĤĪãģĨVtuber": 4390,
      "app": 4391,
      "ãģ§è¦ĭ": 4392,
      "é®": 4393,
      "çįĦ": 4394,
      "ãģ«ä¹Ĺ": 4395,
      "ãģ£ãģ¦ãģĬ": 4396,
      "ãģĵãĤį": 4397,
      "ä¸įå®ī": 4398,
      "ãĥ©ãĤ¤ãĥĪ": 4399,
      "éŃĶå¥³": 4400,
      "ãĤıãģŁãģĹ": 4401,
      "ãģ£ãģ¦ãģıãĤĭ": 4402,
      "ĠåĬ": 4403,
      "èĢģ": 4404,
      "Ġæİ": 4405,
      "Ġè©³ç´°": 4406,
      "ãĥŀãĥ«": 4407,
      "å¿Ĺ": 4408,
      "ãĥĲãĥ©": 4409,
      "åįĪ": 4410,
      "ä¾¡åĢ¤": 4411,
      "`*)<": 4412,
      "æľĢæĸ°": 4413,
      "ãĤ¹ãĥĪãĥ¼ãĥª": 4414,
      "èŃ¦å¯Ł": 4415,
      "FF": 4416,
      "ç®¡çĲĨ": 4417,
      "Ġç´łæķµ": 4418,
      "ĠðŁİģ": 4419,
      "ä¸ĢèĪ¬": 4420,
      "Ġ11": 4421,
      "ĠÌģ)": 4422,
      "ãĥ³ãĥĶ": 4423,
      "ãĤ¬ãĥ¼": 4424,
      "®ĭ": 4425,
      "Ĵ®": 4426,
      "å®¶ãģ«": 4427,
      "èµ·ãģįãģ¦": 4428,
      "ãģĹãģ¨": 4429,
      "ue": 4430,
      "ãģ«ãģĶ": 4431,
      "æĿŁ": 4432,
      "ãĥ³ãĥĬ": 4433,
      "æħ¢": 4434,
      "ãĤĦãģ£ãģ¨": 4435,
      "äºĭæķħ": 4436,
      "ãĤĬãĤĵ": 4437,
      "åįļ": 4438,
      "ðŁ¤¤": 4439,
      "ãģıãģĦ": 4440,
      "ãģĶãģ¨": 4441,
      "ãģªãģĦãģ®ãģ§": 4442,
      "Ġ(*": 4443,
      "åĪĨãģĭ": 4444,
      "åĸĦ": 4445,
      "ç¨¼": 4446,
      "ome": 4447,
      "ãģķãĤĵãģĬãģ¯ãĤĪãģĨãģĶãģĸãģĦãģ¾ãģĻ": 4448,
      "ĠåĮ": 4449,
      "Ġå¾Į": 4450,
      "ãģ®åķıé¡Į": 4451,
      "?(": 4452,
      "ðŁ¤£<": 4453,
      "ĠãĥĪ": 4454,
      "ãģ®ãģĽ": 4455,
      "ä¸ĸä»£": 4456,
      "å¡Ĺ": 4457,
      "Ġãģ¯ãģĦ": 4458,
      "æĵį": 4459,
      "Ġ19": 4460,
      "ãĤ¹ãĥĿ": 4461,
      "ãĥŁãĤ¢": 4462,
      "ãĤªãĥķ": 4463,
      "ç¶ļãģĳãģ¦": 4464,
      "èħķ": 4465,
      "èĨ": 4466,
      "æĶ¯æı´": 4467,
      "çĽĬ": 4468,
      "çı¾åł´": 4469,
      "çĽ¸è«ĩ": 4470,
      "å±Ĭãģı": 4471,
      "ãģªãģĭãģªãģĭ": 4472,
      "ãģ¾ãģ§ãģ«": 4473,
      "åİļ": 4474,
      "ðŁ«¶": 4475,
      "ãĤıãģļ": 4476,
      "â¬Ľ": 4477,
      "ĠæĻ®": 4478,
      "GW": 4479,
      "âĪĩ": 4480,
      "æį¨": 4481,
      "ud": 4482,
      "éħĶ": 4483,
      "éłĳå¼µãĤĬãģ¾ãģĻ": 4484,
      "ãĤ»ãĥ«": 4485,
      "å¾Įãģ®": 4486,
      "èģŀãģĦãģŁ": 4487,
      "åįĶåĬĽ": 4488,
      "â¡": 4489,
      "ãģ®åľ°": 4490,
      "ãĤ¦ãĤ©": 4491,
      "ED": 4492,
      "ure": 4493,
      "ãĤ³ãĥ³ãĥĨ": 4494,
      "ä»ĬéĢ±": 4495,
      "æī¹": 4496,
      "ãģĿãĤĮãģĮ": 4497,
      "èĩªåĪĨãģ§": 4498,
      "ä¼¸ãģ³": 4499,
      "??<": 4500,
      "ãģĦãģ¨": 4501,
      "éħ·": 4502,
      "TH": 4503,
      "ĠåŃ": 4504,
      "Ġãģ¾ãģĤ": 4505,
      "ä¸»ç¾©": 4506,
      "ãģ«ãĤĥãĤĵ": 4507,
      "ãģĭãģŃ": 4508,
      "å®Ŀ": 4509,
      "ðŁĺ³": 4510,
      "âĢįâĻĢï¸ı": 4511,
      "è¨´": 4512,
      "ãĥ¡ãĥ¢": 4513,
      "ĥħåł±": 4514,
      "ãĤ¨ãĤ¤": 4515,
      "éĢĨãģ«": 4516,
      "ãģĦãģĪ": 4517,
      "èª°ãĤĤ": 4518,
      "æµ·å¤ĸ": 4519,
      "ðŁĻĩâĢįâĻĤï¸ı": 4520,
      "âī¦": 4521,
      "âĿĹâĿĹâĿĹâĿĹ": 4522,
      "ãģ¿ãĤĭ": 4523,
      "å°¾": 4524,
      "è¶£": 4525,
      "ĠâĢľ": 4526,
      "ãģĿãĤįãģĿãĤį": 4527,
      "Ġåº": 4528,
      "ĠåıĤåĬł": 4529,
      "ãģłãģ¨æĢĿ": 4530,
      "è²¬ä»»": 4531,
      "ry": 4532,
      "æĹ©ãģĦ": 4533,
      "å¦Ļ": 4534,
      "ĠãģĦãģ¤": 4535,
      "ãĥªãĥªãĥ¼ãĤ¹": 4536,
      "ãģķãģĽãģ¦ãģĦãģŁãģłãģįãģ¾ãģĻ": 4537,
      "!!!!!!": 4538,
      "æĬĺ": 4539,
      "çĶ¨æĦı": 4540,
      "ä½¿ãģĪãĤĭ": 4541,
      "ç¬ĳé¡Ķ": 4542,
      "ãģĵãĤĮãģĭãĤī": 4543,
      "éļ£": 4544,
      "åľ°éľĩ": 4545,
      "eb": 4546,
      "ç§ĺ": 4547,
      "OM": 4548,
      "ãĤ¢ãĤ¤ãĥīãĥ«": 4549,
      "ãģķãĤĵãģĬãģ¯": 4550,
      "ãĤĴåħ¬éĸĭ": 4551,
      "ers": 4552,
      "ãģ§ãĤĤãģĦãģĦ": 4553,
      "å·ŀ": 4554,
      "æľŃ": 4555,
      "ä¿ĿèŃ·": 4556,
      "ãģ®åł´ãģ§å½ĵãģŁãĤĭ": 4557,
      "Ġè¦ĭ": 4558,
      "ook": 4559,
      "ãģĹãģ¦ãĤĤãĤī": 4560,
      "åĿĩ": 4561,
      "è¡¨ç¤º": 4562,
      "æµ·éģĵ": 4563,
      "ãĥ¡ãĥ³": 4564,
      "æĬĹ": 4565,
      "ãĤīãģĽ": 4566,
      "ãĤ°ãĥª": 4567,
      "ãģ³ãģ£ãģıãĤĬ": 4568,
      "ç¹Ķ": 4569,
      "Ġ2022": 4570,
      "éļľå®³": 4571,
      "...ãĢĤ<": 4572,
      "ãĤŃãĥ£ãĥ©ãĤ¯ãĤ¿ãĥ¼": 4573,
      "ĠåĽ½": 4574,
      "ĠãĢ": 4575,
      "eing": 4576,
      "ãģ¿ãģ¾ãģĽãĤĵ": 4577,
      "ä¸Ģäºº": 4578,
      "åĢĻ": 4579,
      "æ±ł": 4580,
      "ãĤ·ãĥ£ãĥ«": 4581,
      "åīµä½ľ": 4582,
      "å¹ķ": 4583,
      "é£¼": 4584,
      "æĿ¡ä»¶": 4585,
      "ãģ¤ãģ®": 4586,
      "éĻ¸": 4587,
      "åĩį": 4588,
      "é£Łãģ¹ãģŁ": 4589,
      "(ãĥ»": 4590,
      "ãĤĭãģĭãĤī": 4591,
      "...?<": 4592,
      "ãģªãĤĵãģłãĤįãģĨ": 4593,
      "ãģģãģģãģģãģģ": 4594,
      "å¿ĺãĤĮãģ¦": 4595,
      "ï¸ıâĥ£": 4596,
      "ãĥĩãĤ¸": 4597,
      "ãģĬéĩĳ": 4598,
      "çĤ¹ãģ§": 4599,
      "éŁĵåĽ½": 4600,
      "ĠAI": 4601,
      "é¨Ĵ": 4602,
      "åĴ²": 4603,
      "éĽ°": 4604,
      "ãģĹãģªãģĦãģ¨": 4605,
      "ðŁ¥º<": 4606,
      "ãģĨãĤĵ": 4607,
      "ãĥ«ãĥĪ": 4608,
      "éĽ°åĽ²": 4609,
      "ı¡": 4610,
      "ãģ®ãĤĪãģĨãģ«": 4611,
      "æĤĶ": 4612,
      "ãĥĨãĤ£ãĥĸ": 4613,
      "èĻ«": 4614,
      "âī§": 4615,
      "ðŁĺĭ": 4616,
      "âĢĭ": 4617,
      "ãĤºãĥł": 4618,
      "ĠãĥķãĤ¡": 4619,
      "çī¹åĪ¥": 4620,
      "ãģķãĤīãģ«": 4621,
      "ãĤĩãģĨ": 4622,
      "ãģĭãģĽãģ¦": 4623,
      "åŃĲãģĮ": 4624,
      "åģľ": 4625,
      "RP": 4626,
      "çŃĶãģĪ": 4627,
      "OS": 4628,
      "ðŁĺĦ": 4629,
      "åıĤèĢĥ": 4630,
      "æļ®": 4631,
      "day": 4632,
      "ãģĵãģ£ãģ¡": 4633,
      "çĽ®ãģĮ": 4634,
      "è¾¼ãĤĢ": 4635,
      "éĩįè¦ģ": 4636,
      "éģ¸æĬŀ": 4637,
      "ä»®éĿ¢": 4638,
      "æĸĩåĮĸ": 4639,
      "ĠãĥŀãĤ¸": 4640,
      "ãģ£ãģ¦ãģĦãģ¾ãģĻ": 4641,
      "è§£æ±º": 4642,
      "å¿ĥéħį": 4643,
      "ãģ¨ãģįãģ«": 4644,
      "ãģ®æĻĤ": 4645,
      "ä»ķæĸ¹": 4646,
      "åıĹãģĳåıĸ": 4647,
      "æĹħè¡Į": 4648,
      "ãĤ¢ãĥ¼ãĥĪ": 4649,
      "ãģªãĤĵãģ¨ãģĭ": 4650,
      "å²¸": 4651,
      "!!ï¸ı<": 4652,
      "åħĪè¼©": 4653,
      "ãĥķãĤ§ãĤ¹": 4654,
      "ãĤģãģ«": 4655,
      "ãģ¨ãģĹãģ¦ãģ¯": 4656,
      "ãģ¨ãĤĵãģ©": 4657,
      "å§ĭãĤģãģŁ": 4658,
      "ãģįãģ®": 4659,
      "éģº": 4660,
      "ãĥŀãĥ¼": 4661,
      "æķĻèĤ²": 4662,
      "ãģĦãģĮ": 4663,
      "å®Łè£ħ": 4664,
      "ãĥĩãĤ£ãĤ¢": 4665,
      "Ġãģ¨ãĤĬ": 4666,
      "ãģªãģıãģªãģ£ãģŁ": 4667,
      "ãĤ¯ãĤ·ãĥ§ãĥ³": 4668,
      "ä»Ĭãģ¯": 4669,
      "å°ĳå¥³": 4670,
      "æŁĦ": 4671,
      "ãģ£ãģ¦ãĤĤãĤī": 4672,
      "ãĥ«ãĤ«": 4673,
      "ãĥ§ãĥ³": 4674,
      "Ġæĺ¯éĿŀ": 4675,
      "ä¸ĬãģĴãģ¦": 4676,
      "å¤ªéĥİ": 4677,
      "ãĤĴåıĸ": 4678,
      "ĠãĥĴ": 4679,
      "ãĥĩãĤ«": 4680,
      "ĠÌģâĸ½": 4681,
      "ĠãģĤãĤĮ": 4682,
      "å®ĮäºĨ": 4683,
      "ðŁĺİ": 4684,
      "å¥ı": 4685,
      "ðŁĲĪ": 4686,
      "Ġå°ĳ": 4687,
      "?...": 4688,
      "æĺĵ": 4689,
      "Ġãģ¦": 4690,
      "Ġç¶": 4691,
      "æİĪ": 4692,
      "åħĪãģ«": 4693,
      "Ġä»ĬæĹ¥ãģ®": 4694,
      "çµ±ä¸Ģ": 4695,
      "ãĤŃãĥ³": 4696,
      "ãĤ³ãĥŀ": 4697,
      "èĶµ": 4698,
      "å¾®": 4699,
      "ãģĹãģ¦ãģıãĤĮãģŁ": 4700,
      "ãĤ¿ãĥ¼ãĥ³": 4701,
      "ç´łæĻ´ãĤīãģĹãģĦ": 4702,
      "¥½ãģĹãģ¿": 4703,
      "æĩĲ": 4704,
      "ãģĻãĤĭãģĭ": 4705,
      "eat": 4706,
      "ãĥĲãĤ¹": 4707,
      "ost": 4708,
      "ĠæĻĤ": 4709,
      "æŃ´åı²": 4710,
      "ãģ¯ãĤĵ": 4711,
      "ãģ®å§": 4712,
      "ãĤ±ãĥ¼ãĤŃ": 4713,
      "æµľ": 4714,
      "ãģ®äººãģĮ": 4715,
      "æĺŁãģ®": 4716,
      "Ġåı¯æĦĽãģĦ": 4717,
      "Ġæ²": 4718,
      "ãĥŀãĥŃ": 4719,
      "ĠãģĭãĤıãģĦãģĦ": 4720,
      "ãĥªãĥĨãĤ£": 4721,
      "Ġåľ°": 4722,
      "ãģĿãģ®ãģ¾ãģ¾": 4723,
      "ote": 4724,
      "çµ¶å¯¾ãģ«": 4725,
      "ðŁĺ±": 4726,
      "ãģ®å¯¾": 4727,
      "Ġäºº": 4728,
      "ãģĬå¾ħãģ¡": 4729,
      "åĬ¹æŀľ": 4730,
      "70": 4731,
      "æĽ¿ãģĪ": 4732,
      "æĦŁãģĮ": 4733,
      "ãģĬçĸ²ãĤĮæ§ĺãģ§ãģĹãģŁ": 4734,
      "ãĥ¼ãĥģãĥ£ãĥ«": 4735,
      "ãģ£ãģ¦ãģĵãģ¨": 4736,
      "èĲ½ãģ¡çĿĢ": 4737,
      "ãĤ¹ãĥļãĥ¼ãĤ¹": 4738,
      "AmazonãĤ®ãĥķãĥĪ": 4739,
      "90": 4740,
      "é¾į": 4741,
      "ãĥŃãĥĥãĤ¯": 4742,
      "å·®åĪ¥": 4743,
      "æĹ§": 4744,
      "ãģĤãĤĬãģ§ãģĻ": 4745,
      "ä¸Ńãģ§ãģĻ": 4746,
      "US": 4747,
      "ç§Ģ": 4748,
      "ãģłãģ£ãģŁãģ®ãģ§": 4749,
      "æŃĮãģĦ": 4750,
      "ä»²éĸĵ": 4751,
      "ãĥĨãĥŃ": 4752,
      "å®Łæĸ½": 4753,
      "éģİãģİãģ¦": 4754,
      "å¤§ä¼ļ": 4755,
      "ãģĹãģ°": 4756,
      ")ãĢģ": 4757,
      "ãģĨãģķ": 4758,
      "æĮĳæĪ¦": 4759,
      "RE": 4760,
      "èĸĦ": 4761,
      "ãĥ¡ãĤ¤ãĥī": 4762,
      "UN": 4763,
      "ãģĮåħ¥": 4764,
      "å¹´ãģ¯": 4765,
      "!!!!!<": 4766,
      "Ġme": 4767,
      "ä»Ĭãģ¾ãģ§": 4768,
      "å¿Ļ": 4769,
      "çŁ¥èŃĺ": 4770,
      "ãĤŃãĥ£ãĤ¹ãĥĪ": 4771,
      "oon": 4772,
      "ãĥīãĥª": 4773,
      "äºĪæĥ³": 4774,
      "ãģĽãģļ": 4775,
      "å¯¾è±¡": 4776,
      "ãģ«åıĤåĬł": 4777,
      "ãĤĬãģ§": 4778,
      "çĽ¤": 4779,
      "èī²ãĤĵãģª": 4780,
      "Ġå¹³": 4781,
      "ãĤħãģĨ": 4782,
      "ãĥįãĥ«": 4783,
      "èª¿ãģ¹": 4784,
      "èıĵ": 4785,
      "ãĤĦãģ£ãģ±": 4786,
      "åĽŀçĽ®": 4787,
      "ãĤ¼ãĥŃ": 4788,
      "æŃĮãģ£ãģ¦ãģ¿ãģŁ": 4789,
      "Ġæģ": 4790,
      "ãģªãĤĵãģ¨": 4791,
      "ard": 4792,
      "è·Ŀ": 4793,
      "ãĥ¯ãĤ¯ãĥģãĥ³": 4794,
      "uc": 4795,
      "ðŁİĢ": 4796,
      "è·ĿéĽ¢": 4797,
      "AY": 4798,
      "ãĤĴæĬķ": 4799,
      "ä»¥éĻį": 4800,
      "éģĶæĪĲ": 4801,
      "ãĥīãĤŃ": 4802,
      "ãģ®å¸": 4803,
      "å°±": 4804,
      "ãĤ®ãĥ¥": 4805,
      "å®īåĢį": 4806,
      "æŃĵ": 4807,
      "èĥ¸": 4808,
      "ãĢĤãĢį": 4809,
      "Ġå¥³": 4810,
      "å¾Ĵ": 4811,
      "ãģ»ãĤĵãģ¨ãģ«": 4812,
      "ãĤ¢ãĥ¡ãĥªãĤ«": 4813,
      "!ãĢĳ": 4814,
      "åĩºæ¼Ķ": 4815,
      "å±¤": 4816,
      "ãĤĵãģłãģĭãĤī": 4817,
      "èĳĹ": 4818,
      ":<": 4819,
      "ib": 4820,
      "ãģĤãģŁãĤĬ": 4821,
      "ãģķãģ¾ãģ§": 4822,
      "ðŁ¤Ń": 4823,
      "aw": 4824,
      "ãģĦãģ£ãģ¦": 4825,
      "ong": 4826,
      "ĠãĥĶ": 4827,
      "çĽ®ãģ«": 4828,
      "ãģĹãģ¾ãģĦãģ¾ãģĹãģŁ": 4829,
      "æ®ĭå¿µ": 4830,
      "ãģ¾ãģı": 4831,
      "ðŁĮĪ": 4832,
      "?!": 4833,
      "å©": 4834,
      "ãĥĹãĥ¬ãĤ¼ãĥ³ãĥĪä¼ģçĶ»": 4835,
      "ãģ¤ãĤĤãĤĬ": 4836,
      "Ġæ¥½": 4837,
      "ĠãģĵãĤĮãģĭãĤīãĤĤ": 4838,
      "Ġãģĵãģ¡ãĤīãģĵãģĿ": 4839,
      "ãģ®ãĤ¨": 4840,
      "eg": 4841,
      "ãģĪãģ¾ãģĹãģŁ": 4842,
      "ide": 4843,
      "å¿ĺãĤĮ": 4844,
      "pp": 4845,
      "ĠãĤ»": 4846,
      "è³Ľ": 4847,
      "çī©èªŀ": 4848,
      "ç¦ģæŃ¢": 4849,
      "ãģłãĤįãģĨãģĭ": 4850,
      "éĽ²": 4851,
      "ãĥĨãĥ¼ãĥŀ": 4852,
      "èª¿æķ´": 4853,
      "ãģ«ãģĦãĤĭ": 4854,
      "ãģĻãĤĭãģ®ãģ¯": 4855,
      "å¤ľãģ®": 4856,
      "åĪ°": 4857,
      "ãĤ±ãĥ¼ãĤ¹": 4858,
      "éļĪ": 4859,
      "ãģ¤ãģĦ": 4860,
      "ãĥĨãĥ³": 4861,
      "æĪĲåĬŁ": 4862,
      "éŃħ": 4863,
      "ãĥ³ãĥĹãĥ«": 4864,
      "å±Ĭãģĳ": 4865,
      "ãģķãģĮ": 4866,
      "è¡Įãģį": 4867,
      "ãģ®ãĤĦãģ¤": 4868,
      "ãĥ»`)<": 4869,
      "è¿«": 4870,
      "çĻºè¦ĭ": 4871,
      "av": 4872,
      "ãģĦãģ¦ãģĦãĤĭ": 4873,
      "ãĥ¼ãĥĩãĤ£": 4874,
      "´»": 4875,
      "ãģ¾ãģĹãĤĩ": 4876,
      "ãĥĢãĤ¦ãĥ³": 4877,
      "éķ·ãģĦ": 4878,
      "ç¢ºå®ļ": 4879,
      "çĹħéĻ¢": 4880,
      "´ì": 4881,
      "æĻĤéĸĵãģĮ": 4882,
      "æĶ»æĴĥ": 4883,
      "èªįèŃĺ": 4884,
      "æĭł": 4885,
      "åĩºæĿ¥ãģªãģĦ": 4886,
      "NintendoSwitch": 4887,
      "ãģ¤ãģĳãģŁ": 4888,
      "ãĥŃãĥ³": 4889,
      "ãĤµãĤ¤ãĤº": 4890,
      "è±Ĭ": 4891,
      "èĭ¦æīĭ": 4892,
      "ĠãĥĦãĤ¤ãĥ¼ãĥĪ": 4893,
      "ãģ»ãģ¨ãĤĵãģ©": 4894,
      "ðŁĺħ<": 4895,
      "ob": 4896,
      "ãĥ¼ãģķãĤĵ": 4897,
      "ä¼Ŀèª¬": 4898,
      "ment": 4899,
      "ãĤªãĥ¼ãĥĹ": 4900,
      "ç¹°": 4901,
      "æĻ©": 4902,
      "ãĤŃãĥ©": 4903,
      "å®¶ãģ®": 4904,
      "å½¼å¥³": 4905,
      "æ¬Ħ": 4906,
      "ãĥ¼ãĤ¹ãĥĪ": 4907,
      "ãĤ´ãĥŁ": 4908,
      "åĪ¤æĸŃ": 4909,
      "æī¹åĪ¤": 4910,
      "æŃ¯": 4911,
      "AK": 4912,
      "ðŁĮĻ": 4913,
      "ãģ®æ¼": 4914,
      "ãĥıãĤ¤": 4915,
      "Ġmy": 4916,
      "â¬ľâ¬ľ": 4917,
      "ãģ®ãģªãģĦ": 4918,
      "ãģ¨ãģªãĤĭ": 4919,
      "Ġâļ": 4920,
      "éħįå¸ĥ": 4921,
      "æ°ĳåħļ": 4922,
      "ãģŁãģ¡ãģĮ": 4923,
      "ãģķãģĻãģĮ": 4924,
      "ãģıãģłãģķãģĦãģŃ": 4925,
      "ãĤĭãģ®ãģ¯": 4926,
      "ãģĶãĤģãĤĵ": 4927,
      "æĹ¥æľ¬èªŀ": 4928,
      "ä¸»äºº": 4929,
      "æļĹ": 4930,
      "ç·¨éĽĨ": 4931,
      "MI": 4932,
      "ĠãģªãĤĵãģ§": 4933,
      "ãĥĥãĤ°": 4934,
      "äºĭãģ¯": 4935,
      "ðŁĴ¢": 4936,
      "ist": 4937,
      "çĹĽãģĦ": 4938,
      "ãģĤãĤī": 4939,
      "åįł": 4940,
      "è´": 4941,
      "ãģĬãģ£": 4942,
      "åĨħãģ§": 4943,
      "ãģ®å¿ĥ": 4944,
      "éŁ³ãĥŁãĤ¯": 4945,
      "çŁ³ãģ«": 4946,
      "ãģĤãĥ¼": 4947,
      "ãģ®æ©Ł": 4948,
      "ãĥ½": 4949,
      "ãĤ¢ãĤ¦ãĥĪ": 4950,
      "ãģ§ãĤĤãģªãģĦ": 4951,
      "ãĤ´ãĥ¼ãĥ«": 4952,
      "è·¡": 4953,
      "ãģ®æ¯": 4954,
      "¤ľ": 4955,
      "ĠË": 4956,
      "éģĭåĸ¶": 4957,
      "ãĥĥãĥĳ": 4958,
      "ãģĿãģĨãģ§": 4959,
      "éĹĩ": 4960,
      "åºķ": 4961,
      "¼¶": 4962,
      "ĠæĽ": 4963,
      "ä¸įè¶³": 4964,
      "ãģ«ãģªãĤīãģªãģĦ": 4965,
      "ãģ®ä¸ĸçķĮ": 4966,
      "æīĭãĤĴ": 4967,
      "æ¥½ãģĹãģı": 4968,
      "ãģłãģ¨æĢĿãģĦãģ¾ãģĻ": 4969,
      "Ġâ¬": 4970,
      "åºŃ": 4971,
      "å¥³ãģ®åŃĲ": 4972,
      "ãģ¼ãģı": 4973,
      "ãģĮãģĤãģ£ãģ¦": 4974,
      "ãģ¯ãģ©ãģĨ": 4975,
      "ãĤ¤ãĤ±": 4976,
      "çĶŁèªķ": 4977,
      "ç¾¤": 4978,
      "ãģ¨ãģĵãĤįãģ§": 4979,
      "é¼": 4980,
      "æİ¡": 4981,
      "æľīåĲį": 4982,
      "ãĤ«ãĥĥãĤ³": 4983,
      "çĶ¨ãģ®": 4984,
      "Ġæ¯İæĹ¥": 4985,
      "ãĤ¤ãĤ«": 4986,
      "äºĭå®Ł": 4987,
      "ĠçŁ¥": 4988,
      "ãĤĵãģłãĤĪãģŃ": 4989,
      "ðŁĻĩâĢįâĻĢï¸ı": 4990,
      "ãģªãģ®ãģ¯": 4991,
      "ãĤµãĥ¼": 4992,
      "ä¾µ": 4993,
      "ãĥĲãĤ¤ãĥĪ": 4994,
      "33": 4995,
      "ĠæŃĮ": 4996,
      "ãĤıãģĭãĤĬ": 4997,
      "ĠâĻ": 4998,
      "ãģ¾ãģĻãģŃ": 4999,
      "å¹´ãģ«": 5000,
      "åģī": 5001,
      "è¡ĮçĤº": 5002,
      "ä»£è¡¨": 5003,
      "____": 5004,
      "ãģĮå¿ħè¦ģ": 5005,
      "ãģªãģıãģªãģ£ãģ¦": 5006,
      "éłĳå¼µãĤĭ": 5007,
      "45": 5008,
      "ain": 5009,
      "Û¶": 5010,
      "éĢ£ç¶ļ": 5011,
      "é£Łãģ¹ãģŁãģĦ": 5012,
      "ãģĬä»ķäºĭ": 5013,
      "Ġæļ": 5014,
      "ĠãģĵãĤĵãģ°ãĤĵãģ¯": 5015,
      "ast": 5016,
      "Ġãģ¨ãĤĬãģĤãģĪãģļ": 5017,
      "âĪ©": 5018,
      "è¨ª": 5019,
      "ðŁ¤į": 5020,
      "ãĤ³ãĥŁãĥ¥": 5021,
      "ãģ®ãĥŀ": 5022,
      "ðŁĴ¤": 5023,
      "èĵ": 5024,
      "ãģĮå½ĵãģŁãĤĭ": 5025,
      "å¤§äºº": 5026,
      "çĶŁæĪĲ": 5027,
      "ãĤĵãģłãģĮ": 5028,
      "ãģ«è¡Įãģ£ãģ¦": 5029,
      "éģĬãĤĵãģ§": 5030,
      "ãģ¡ãĤĵ": 5031,
      "ãĤĦãĤĬãģ¾ãģĻ": 5032,
      "å¤īãģª": 5033,
      "Ġå¤©": 5034,
      "ãĢĤ...<": 5035,
      "ãģĵãģ¨ãģªãģĦ": 5036,
      "ãģĹãģ¾ãģĦ": 5037,
      "æŀĹ": 5038,
      "æ°ĳä¸»": 5039,
      "å«ĮãģĦ": 5040,
      "ãĤĬãĤĴ": 5041,
      "ãģ¾ãģ§ãģ¯": 5042,
      "Peing": 5043,
      "å¹´éĸĵ": 5044,
      "ãģ®åł´åĲĪ": 5045,
      "ãģªãģĭ": 5046,
      "ãģ®æĬ": 5047,
      "çĿ£": 5048,
      "åģ¥åº·": 5049,
      "ãĥ¡ãĥ³ãĥĨ": 5050,
      "ãĤĢãģĹãĤį": 5051,
      "æŃ£è§£": 5052,
      "å¸°ãģ£ãģ¦": 5053,
      "éª¨": 5054,
      "ãģĭãģı": 5055,
      "å·¡": 5056,
      "æ²³": 5057,
      "éŃĶæ³ķ": 5058,
      "æĭ¡æķ£å¸ĮæľĽ": 5059,
      "ove": 5060,
      "Ġå£": 5061,
      "åį³": 5062,
      "éĨ": 5063,
      "ãĥ¼ãĥĲãĥ¼": 5064,
      "æ°Ĺãģ§": 5065,
      "Ġâĸł": 5066,
      "ãģĹãģ¦ãģŁãĤī": 5067,
      "ðŁİĪ": 5068,
      "ä½ķåº¦": 5069,
      "æĪĲéķ·": 5070,
      "èºį": 5071,
      "ãģĹãģ®": 5072,
      "ãģĮãģĦãĤĭ": 5073,
      "ãģ£ãģŁãĥªãĥĹãĥ©ãĤ¤": 5074,
      "ãģĻãĤĭãģ®": 5075,
      "SNS": 5076,
      "Ġéĩĳ": 5077,
      "ãĥģãĤ±ãĥĥãĥĪ": 5078,
      "å¯Į": 5079,
      "ãģ£ãģŁãĥªãĥĹãĥ©ãĤ¤æķ°": 5080,
      "ãĤĬãģ¯": 5081,
      "ãģ¨ãģĦãģĨãģ®ãģ¯": 5082,
      "ãĥĪãĥĥãĥĹ": 5083,
      "ãģ®å¥½": 5084,
      "ãĤ¬ãĥ³ãĥĢãĥł": 5085,
      "ãģ¼ãģ£ãģ¡": 5086,
      "ãĥ³ãĥĩãĤ£": 5087,
      "ì§": 5088,
      "ĠYouTube": 5089,
      "ãĥŀãĤ·ãĥ¥": 5090,
      "ðĵĤ": 5091,
      "...!!": 5092,
      "ãģ¤ãģĦãģ«": 5093,
      "ãģ¨ãģĦãģĨãģĵãģ¨": 5094,
      "è¦ļãģĪãģ¦": 5095,
      "å¤ľãģ¯": 5096,
      "äºĪå®ļãģ§ãģĻ": 5097,
      "çŀ¬éĸĵ": 5098,
      "ãģĤãģ£": 5099,
      "ãĤĦãģ§": 5100,
      "ç¢ºãģĭãģ«": 5101,
      "ĠâĢ¢": 5102,
      "è©¦åĲĪ": 5103,
      "ä¾¡æł¼": 5104,
      "ãģĳãĤĮãģ©": 5105,
      "ãĤ¦ãĤ¯ãĥ©ãĤ¤ãĥĬ": 5106,
      "ðŁĴĻ": 5107,
      "æ¥½ãģĹãģ¿ãģ«": 5108,
      "çµµå¸«": 5109,
      "ðŁİī<": 5110,
      "æĶ¿åºľ": 5111,
      "ĠåŃĲ": 5112,
      "ãĤ¨ãĥŃ": 5113,
      "æĬľãģį": 5114,
      "é®®": 5115,
      "è¶£åĳ³": 5116,
      "ãģĻãģ¹ãģ¦": 5117,
      "ãĥªãĤ³": 5118,
      "ãĤ¿ãĥĲ": 5119,
      "ç´łæĿĲ": 5120,
      "ä½Ļè£ķ": 5121,
      "ðŁŁ©ðŁŁ©": 5122,
      "åħį": 5123,
      "çķĻ": 5124,
      "èĥ½åĬĽ": 5125,
      "é£Ľãģ³": 5126,
      "Ġ~": 5127,
      "ãģĦãģĦãģª": 5128,
      "æĦŁæĥħ": 5129,
      "ä¼ļãģĦ": 5130,
      "çĦ¡é§Ħ": 5131,
      "ä¹Ŀ": 5132,
      "ãģ«ãĤĪãĤĬ": 5133,
      "æĹ¦": 5134,
      "Ġç´łæķµãģª": 5135,
      "æľĪãģ®": 5136,
      "ãĥ³ãĥĢãĥ¼": 5137,
      "è¡Ŀ": 5138,
      "å°Ĭ": 5139,
      "èº«ä½ĵ": 5140,
      "ãģ®åĨħ": 5141,
      "ect": 5142,
      "ãģĹãģ¡ãĤĥ": 5143,
      "åĪĢ": 5144,
      "ãĤ³ãĤ¢": 5145,
      "CH": 5146,
      "éĩĮ": 5147,
      "çŁ¥ãģ£ãģ¦ãĤĭ": 5148,
      "ç¶Ń": 5149,
      "ãĥķãĥª": 5150,
      "ä½ķãģĮ": 5151,
      "ãģĻãģİãģŁ": 5152,
      "ãģĻãģ¹ãģį": 5153,
      "ãĥ³ãĤ¿ãĥ«": 5154,
      "åĲĪãĤıãģĽãģ¦": 5155,
      "ĠãĤĪ": 5156,
      "æ¸ħ": 5157,
      "é»Ħ": 5158,
      "ãĥ¦ãĥ¼ãĤ¶": 5159,
      "è¾ĽãģĦ": 5160,
      "LE": 5161,
      "ãģ£ãģĿ": 5162,
      "çĶ²": 5163,
      "ãĥ¼ãĥį": 5164,
      "æĭħå½ĵ": 5165,
      "åı¥": 5166,
      "ãĤªãĤª": 5167,
      "èĩªçĦ¶": 5168,
      "ç«ľ": 5169,
      "ç«ĭãģ¦": 5170,
      "ãģĭãĤıãģĦ": 5171,
      "ãģĦãĤįãģĦãĤį": 5172,
      "Ġä»ĬåĽŀãģ¯": 5173,
      "è¿ĳãģĦ": 5174,
      "ãĤıãĤĭ": 5175,
      "ãĤģãĤĵãģª": 5176,
      "ç¸Ħ": 5177,
      "åį°è±¡": 5178,
      "Ġç¾İåĳ³": 5179,
      "ãģ¨ãģĹãģ¦ãĤĤ": 5180,
      "èįĴ": 5181,
      "ãĥ³ãĥĨãĤ£": 5182,
      "TV": 5183,
      "å·¨": 5184,
      "æĻ®æ®µ": 5185,
      "Ħª": 5186,
      "Ĺľ": 5187,
      "ãģĶãģĸãģĦãģ¾": 5188,
      "ãģĦãģ¦ãĤĤ": 5189,
      "å¥ª": 5190,
      "éģĭåĭķ": 5191,
      "èĴ": 5192,
      "éı¡": 5193,
      "ãĥĩãĤ¸ãĤ¿ãĥ«": 5194,
      "ge": 5195,
      "ãĥĲãĥ«": 5196,
      "çŁ¥ãĤĬ": 5197,
      "å§«": 5198,
      "ðŁ¥°<": 5199,
      "ðŁĶ¥ðŁĶ¥": 5200,
      "áħ": 5201,
      "Ġãģı": 5202,
      "ãĥ¯ãĥ³": 5203,
      "æ¤ľè¨İ": 5204,
      "âķ¯": 5205,
      "çĩĥ": 5206,
      "ä¸Ģéĥ¨": 5207,
      "ðŁĴ«": 5208,
      "é£²ãĤĵãģ§": 5209,
      "ä¸ĥ": 5210,
      "ãĤ³ãĤ¹": 5211,
      "ãĥ¡ãĥĥãĤ»ãĥ¼ãĤ¸": 5212,
      "æĸ¹ãĤĴ": 5213,
      "ãĤ¤ãĥĪãĥ«": 5214,
      "RPG": 5215,
      "Ġhe": 5216,
      "ãĤĦãģª": 5217,
      "åĦªãģĹãģĦ": 5218,
      "99": 5219,
      "¡ľ": 5220,
      "ãģĹãģ¿": 5221,
      "ãģĻãģ¨": 5222,
      "ãģķãĤĵãģ¨ç¹ĭãģĮãĤĬãģŁãģĦ": 5223,
      "ãĤĵãģ©ãĤĵ": 5224,
      "ãĤ¿ãĤ¤ãĥŁãĥ³ãĤ°": 5225,
      "ãĤŃãĥ¼": 5226,
      "ãĤĴæĬķç¨¿": 5227,
      "ãĥĸãĥŃãĤ°": 5228,
      "âĮĴ": 5229,
      "ãĥĥãĥķ": 5230,
      "çĻĴ": 5231,
      "ink": 5232,
      "âĺķ": 5233,
      "ãģ¬ãģĦ": 5234,
      "Ġãĥĵ": 5235,
      "ãĤµãĤ¤ãĥ³": 5236,
      "ãģ®ãģĬçŁ¥ãĤīãģĽ": 5237,
      "å¯Ŀãģ¦": 5238,
      "ä»®éĿ¢ãĥ©ãĤ¤ãĥĢ": 5239,
      "ãģ«ãģªãģ£ãģŁãĤī": 5240,
      "æ°Ĺè»½": 5241,
      "ãģµãĤı": 5242,
      "æĹ¢ãģ«": 5243,
      "ãĤĦãĤįãģĨ": 5244,
      "èª¿æŁ»": 5245,
      "ä¸Ĭãģ§": 5246,
      "åħ¨åĽ½": 5247,
      "ãģķãĤĮãģ¾ãģĻ": 5248,
      "RI": 5249,
      "ãģĬè©±": 5250,
      "ãĥĥãģ¨": 5251,
      "æĲį": 5252,
      "ff": 5253,
      "ç£": 5254,
      "ãĤ¢ãĥª": 5255,
      "ãĥĩãĥ³": 5256,
      "ãĥĸãĥª": 5257,
      "ãĥĶãĤ¢": 5258,
      "ĠãĤĦãģ£ãģ±ãĤĬ": 5259,
      "ãĤıãģĦ": 5260,
      "ä¿®æŃ£": 5261,
      "ĠãģłãģĭãĤī": 5262,
      "ãĤĦãģı": 5263,
      "èªĮ": 5264,
      "ãĥ¡ãĤ¤ãĥ³": 5265,
      "anma": 5266,
      "ãĤĴãĥĹãĥ¬ãĤ¼ãĥ³ãĥĪ": 5267,
      "å¤ĸåĽ½": 5268,
      "ãĤ¸ãĥ£ãĥ¼": 5269,
      "ãĤ¤ãĥĨãĥł": 5270,
      "RO": 5271,
      "âĬ": 5272,
      "êľ": 5273,
      "ãĥįãĤ¹": 5274,
      "ãĤĤãģ®ãģĮ": 5275,
      "ãĤªãĤ¹ãĤ¹ãĥ¡": 5276,
      "ãģĹãģĮ": 5277,
      "ãģķãĤĮãģªãģĦ": 5278,
      "ĠãģĵãĤĵãģ«ãģ¡ãģ¯": 5279,
      "ãģķãģĪ": 5280,
      "ãģŃãĤĭ": 5281,
      "çľ¼": 5282,
      "æļĸ": 5283,
      "ãģ£ãģ¦è¨ĢãģĨ": 5284,
      "âĿķ": 5285,
      "çĿ¡": 5286,
      "âľĮï¸ı": 5287,
      "ame": 5288,
      "Ġä¸Ĭ": 5289,
      "å¹²": 5290,
      "é¦ĸçĽ¸": 5291,
      "ç§»åĭķ": 5292,
      "å¯¿åı¸": 5293,
      "è¿½ãģĦ": 5294,
      "Ġæ³": 5295,
      "Ð°": 5296,
      "ãģ¾ãģ§ãģ®": 5297,
      "æ¯Ĵ": 5298,
      "¶Ī": 5299,
      "Î¦": 5300,
      "ãģ«æĪ»": 5301,
      "ãĤ¢ãĥī": 5302,
      "ðŁĲ»": 5303,
      "è¾¼ãģ¾": 5304,
      "å¿ħãģļ": 5305,
      "ãĥĭãĤ³ãĥĭãĤ³åĭķçĶ»": 5306,
      "ãĥ«ãĥ¼ãĥ«": 5307,
      "ãĤ¤ãĥĩ": 5308,
      "!?ï¸ı": 5309,
      "ãĤ¢ãĤ«ãĤ¦ãĥ³ãĥĪãĤĴãĥķãĤ©ãĥŃãĥ¼": 5310,
      "ĠãĢĳ": 5311,
      "ãĤĬãģ¾ãģĹãĤĩãģĨ": 5312,
      "Ġç«": 5313,
      "ä¸Ģãģ¤": 5314,
      "éħįä¿¡ä¸Ń": 5315,
      "èĲ½ãģ¨": 5316,
      "æĢ¥ãģ«": 5317,
      "ãĥĲãĥ³": 5318,
      "æĢ§ãģĮ": 5319,
      "ãĤ¤ãĥ³ãĤ¹ãĤ¿": 5320,
      "ãģĭãĤĤãģĹãĤĮãģ¾ãģĽãĤĵ": 5321,
      "ĠãģĽ": 5322,
      "Ġ23": 5323,
      "æĦıå¤ĸ": 5324,
      "å°ĳãģªãģĦ": 5325,
      "ä¿ºãģ¯": 5326,
      "ãģĭãģĪ": 5327,
      "æī¿": 5328,
      "ãĥĲãĤ°": 5329,
      "shind": 5330,
      "ãĤĴæĬķãģĴ": 5331,
      "Ġí": 5332,
      "ãĥĹãĥŃãĤ°ãĥ©": 5333,
      "ãĤ¢ãĥĥãĥĹãĥĩãĥ¼ãĥĪ": 5334,
      "å½±éŁ¿": 5335,
      "shindanma": 5336,
      "´ë": 5337,
      "ç¥Ī": 5338,
      "åº¦ãģĮ": 5339,
      "shindanmaker": 5340,
      "ãģĻãģĴ": 5341,
      "ãģŀãĤĮ": 5342,
      "ãģªãĤĵãģłãĤĪ": 5343,
      "ãĤĴæİ¢": 5344,
      "ĠãģĤãģªãģŁ": 5345,
      "çķĮéļĪ": 5346,
      "èªķçĶŁæĹ¥ãģĬãĤģãģ§ãģ¨ãģĨ": 5347,
      "iP": 5348,
      "ãģ®éħįä¿¡": 5349,
      "éĽ·": 5350,
      "ãĥģãĥ©": 5351,
      "åī²ãģ¨": 5352,
      "ep": 5353,
      "gle": 5354,
      "ìĹ": 5355,
      "ãģĹãģŁãģ®ãģ§": 5356,
      "åĬĽãģ§": 5357,
      "âĹĿ": 5358,
      "å¯ĴãģĦ": 5359,
      "ãĤ¢ãĥ¼": 5360,
      "ãģļãģ¤": 5361,
      "è¾²": 5362,
      "äºĭæ¥Ń": 5363,
      "ãģĿãģĨãģ§ãģĻãģŃ": 5364,
      "ðŁĺĤðŁĺĤ": 5365,
      "åħ¥ãĤĮãĤĭ": 5366,
      "ãĤ´ãĥª": 5367,
      "Ġhave": 5368,
      "ç¥ŃãĤĬ": 5369,
      "Ġå¯Ŀ": 5370,
      "èī¯ãģķ": 5371,
      "ãĤĪãĤįãģĹãģıãģŃ": 5372,
      "ç±į": 5373,
      "ãĥĪãĤ¤ãĥ¬": 5374,
      "ãĥĨãĥ«": 5375,
      "ĠðŁ¥": 5376,
      "ðŁĻĦ": 5377,
      "ä»¥åīį": 5378,
      "ãģĦãģ£ãģŁ": 5379,
      "å¹¹": 5380,
      "ĠãģĵãģĨãģĦãģĨ": 5381,
      "BC": 5382,
      "ãģĭãģ¤": 5383,
      "ãĤģãģªãģĦ": 5384,
      "hatGPT": 5385,
      "io": 5386,
      "ãģ®éłĥ": 5387,
      "å¾ĭ": 5388,
      "ãĥĩãĥ¥": 5389,
      "ãģĹãĤĪ": 5390,
      "ãĤ¯ãĤ¨ãĤ¹ãĥĪ": 5391,
      "è¦ĭãģĪãĤĭ": 5392,
      "ãĥ¯ãĥ¼ãĤ¯": 5393,
      "ä¸ĬãģĮãĤĭ": 5394,
      "ç´Ģ": 5395,
      "å°½": 5396,
      "çĭĻ": 5397,
      "ãĤ¸ãĤ§ãĤ¯ãĥĪ": 5398,
      "ãĤĴæ±Ĥ": 5399,
      "çĢ": 5400,
      "tic": 5401,
      "ãĢĤ)": 5402,
      "ä¼ļè©±": 5403,
      "è²łãģĳ": 5404,
      "ãĥ¤ãĥĲãģĦ": 5405,
      "èıĵåŃĲ": 5406,
      "ðŁĺĩ<": 5407,
      "ãģĦãģĳãģªãģĦ": 5408,
      "ä½ķæķħ": 5409,
      "ä¸ĸè©±": 5410,
      "ãģ«ãģªãĤĭãģ¨": 5411,
      "ç¸ģ": 5412,
      "ãĥľãĤ«ãĤ³ãĥ¬": 5413,
      "åĽºå®ļ": 5414,
      "åĩºãģŁ": 5415,
      "ãģ£ãģ·": 5416,
      "çħ§": 5417,
      "éĢı": 5418,
      "åĨįçĶŁ": 5419,
      "ãĥ³ãĥģãĥ£": 5420,
      "æ¹¯": 5421,
      "Ġä¸ī": 5422,
      "ãģ®å¾": 5423,
      "å§Ķ": 5424,
      "ãĥĢãĤ¤": 5425,
      "æĬ¼ãģĹ": 5426,
      "Ġdo": 5427,
      "ãģĬé¡ĺãģĦèĩ´ãģĹãģ¾ãģĻ": 5428,
      "ãĤĴè¦ĭãģŁ": 5429,
      "ðŁĻı<": 5430,
      "éİ": 5431,
      "ãģ®æģ": 5432,
      "ãģ»ãĤĵ": 5433,
      "Ġãģł": 5434,
      "ãģĬãĤĬ": 5435,
      "ãģ§ãģĻãĤı": 5436,
      "å®Ĺ": 5437,
      "ãģ¡ãĤĥãĤĵãģ¯": 5438,
      "Ġcom": 5439,
      "ãĢľãĢľãĢľãĢľ": 5440,
      "ä»Ĭåº¦": 5441,
      "ãĥ¼ãĤ«ãĤ¤ãĥĸ": 5442,
      "ĠÌĩêĴ³": 5443,
      "Ġãĥ¤": 5444,
      "ãģĴãĤĭ": 5445,
      "è¿·æĥĳ": 5446,
      "Ġab": 5447,
      "ç½®ãģĦãģ¦": 5448,
      "âĶĪâĶĪâĶĪâĶĪ": 5449,
      "ãĥĽãĥ¼ãĥł": 5450,
      "ç¶ļãģĳãĤĭ": 5451,
      "åŁĭ": 5452,
      "ãĥ¼ãĥŀãĥ³": 5453,
      "Ġç©": 5454,
      "éĻĲãĤĬ": 5455,
      "ãĥŀãĤ·ãĥ¥ãĥŀãĥŃ": 5456,
      "LINE": 5457,
      "ãĤĮãģ¾ãģĹãģŁ": 5458,
      "ãĤ«ãĥĥãĥĹ": 5459,
      "ãģ®æľ¬": 5460,
      "ãģ¿ãģŁãĤī": 5461,
      "ally": 5462,
      "æĮ¯ãĤĬ": 5463,
      "Ġä»ĸ": 5464,
      "âļ¡": 5465,
      "Ġåĩ": 5466,
      "ite": 5467,
      "ket": 5468,
      "ãĥľãĤ«ãĥŃ": 5469,
      "Ġch": 5470,
      "å¹´åīį": 5471,
      "ãĥĭãĥĥãĤ¯": 5472,
      "æ¸¯": 5473,
      "ä¹ħãĢħãģ«": 5474,
      "ãĢĭ": 5475,
      "ãģ¯ãĤĤãģĨ": 5476,
      "ãĤĦãĤģãģ¦": 5477,
      "ç§ĳåŃ¦": 5478,
      "ahoo": 5479,
      "ãģ®ãĤĪ": 5480,
      "ãģ¾ãģĹãģĦ": 5481,
      "ãĥŀãĤ¹ãĤ¿ãĥ¼": 5482,
      "ãģĭãģĳãĤĭ": 5483,
      "å¤§éĩı": 5484,
      "ãģĳãģ©ãģŃ": 5485,
      "æĸ¹ãģ®": 5486,
      "å½©": 5487,
      "èģŀãģĵ": 5488,
      "ĠãĤĤãģĹ": 5489,
      "ãģªãģ®ãģ§ãģĻ": 5490,
      "è£½åĵģ": 5491,
      "åĲĲ": 5492,
      "ä¸ĢçĶŁ": 5493,
      "å®īå®ļ": 5494,
      "ãģ©ãģĵãĤį": 5495,
      "ãĤĤãģ®ãģ§": 5496,
      "æĢĿèŃ°": 5497,
      "çĦ¡ãģĹ": 5498,
      "Ġ21": 5499,
      "å§ĭãĤģãģ¦": 5500,
      "éłĪ": 5501,
      "ãĤ¹ãĤ¿ãĥĥãĥķ": 5502,
      "çĽ®ãĤĴ": 5503,
      "ãĢħãģ®": 5504,
      "ãģĩãģĩ": 5505,
      "ðŁĺĺ": 5506,
      "ĠðŁŁ": 5507,
      "ãģĳãģ¾ãģĻ": 5508,
      "ãĤ¢ãĥĬ": 5509,
      "éĽĨä¼ļ": 5510,
      "ä¾¿åĪ©": 5511,
      "åĪĨãģĭãĤĬ": 5512,
      "åĢŁ": 5513,
      "ĠãĥĹãĥ¬": 5514,
      "ĠYou": 5515,
      "ä¹ĥ": 5516,
      "Ì¶": 5517,
      "ĠãģĬãģ¤": 5518,
      "ãģ®æĥħåł±": 5519,
      "çĽ®çļĦ": 5520,
      "ĠãĤĦãģ£ãģŁ": 5521,
      "ãģĵãģ¨ãģĤãĤĭ": 5522,
      "ðŁĲ¾": 5523,
      "iz": 5524,
      "Łº": 5525,
      "ãĥ¼ãĥŁãĥ³ãĤ°": 5526,
      "ä¸įæĢĿèŃ°": 5527,
      "ãģĪãģŁãĤī": 5528,
      "æķ°åŃ¦": 5529,
      "ãĥıãĥŀ": 5530,
      "éĤ£": 5531,
      "ãĤĴä½¿ãģ£ãģ¦": 5532,
      "æķ¬": 5533,
      "èªŃãĤĢ": 5534,
      "CM": 5535,
      "ãģ§ãģĤãĤĬ": 5536,
      "Ġãĥİ": 5537,
      "ĠåĢĭ": 5538,
      "æĻĴ": 5539,
      "åĭķçī©": 5540,
      "ðŁķ": 5541,
      "å¥ĩ": 5542,
      "èģŀãģı": 5543,
      "Ġfrom": 5544,
      "ãģĦãģŁãģłãģĦãģŁ": 5545,
      "ãģ£ãģ¦ãģŁãģĳãģ©": 5546,
      "âłĢâłĢâłĢ": 5547,
      "ä¸»äººåħ¬": 5548,
      "ä½ķãĤĴ": 5549,
      "åĪĿå¿ĥ": 5550,
      "ãģ¨ãģ¯æĢĿ": 5551,
      "åı¤å±ĭ": 5552,
      "çĶŁèªķç¥Ń": 5553,
      "åĥķãģ¯": 5554,
      "ãģ®åī": 5555,
      "è¿Ķä¿¡": 5556,
      "ĠçĽ¸": 5557,
      "ãĤĪãģĦãĤĪ": 5558,
      "ãĤ¹ãĤŃãĥ«": 5559,
      "ãĤĦãģ¯ãĤĬ": 5560,
      "è¨Ģèªŀ": 5561,
      "ãĤ®ãĤ¿ãĥ¼": 5562,
      "ãģłãģĦãģ¶": 5563,
      "Ġç¥ŀ": 5564,
      "å®Łæ³ģ": 5565,
      "æ¦Ĥ": 5566,
      "ãģĬãĤı": 5567,
      "ãģĵãĤĵ": 5568,
      "ãĥīãĥ«": 5569,
      "ãģ§ãģįãģ¾ãģĹãģŁ": 5570,
      "éĿ¢åĢĴ": 5571,
      "ĠãģĨãĤĵ": 5572,
      "æŃ¦åĻ¨": 5573,
      "æŃĵè¿İ": 5574,
      "ake": 5575,
      "æłĦ": 5576,
      "åĳ¼ãģ°": 5577,
      "æĺŁãģ®éŃĶå¥³": 5578,
      "ãĤ¹ãĤ¤": 5579,
      "ãĥ¢ãĥģ": 5580,
      "ãĥ¦ãĥĭ": 5581,
      "............": 5582,
      "â¢": 5583,
      "Ġä»Ĭå¹´ãĤĤ": 5584,
      "Ġas": 5585,
      "å¤§ãģįãģª": 5586,
      "ãģĿãĤĮãģ§": 5587,
      "åĪĨãģ®": 5588,
      "è«¸": 5589,
      "â¸ľ": 5590,
      "ãģĭãģ¯": 5591,
      "ãĤģãģ®": 5592,
      "ç´ħ": 5593,
      "ãģĹãģıãģ¯": 5594,
      "Ġcon": 5595,
      "SP": 5596,
      "ãģĮçĦ¡": 5597,
      "ãĥĲãĥĥãĤ¯": 5598,
      "ãģĵãĤĮãĤĴ": 5599,
      "ãģ¿ãģªãģķãĤĵ": 5600,
      "æłª": 5601,
      "ãģĪãĤĭãģ¨": 5602,
      "ãĥķãĤ¡ãĥŁ": 5603,
      "ãĥĲãĥ¼ãĥģãĥ£ãĥ«": 5604,
      "Ġå¿ĥ": 5605,
      "ëĭ¤": 5606,
      "ç¯ī": 5607,
      "çį£": 5608,
      "ĠãĤĵ": 5609,
      "èĪĹ": 5610,
      "ãģĭãģ£ãģĵãģĦãģĦ": 5611,
      "ell": 5612,
      "ãģĭãĤĮãģŁ": 5613,
      "ãģ®æ§ĺ": 5614,
      "ĸç¸Ħ": 5615,
      "ãģ©ãģ®": 5616,
      "è¡ĮãģįãģŁãģĦ": 5617,
      "ãĤ»ãĥ¼ãĥ«": 5618,
      "å±ķéĸĭ": 5619,
      "ãĤ°ãĥ«ãĥ¼ãĥĹ": 5620,
      "ãĥģãĥ§ãĤ³": 5621,
      "Ġç¢ºãģĭãģ«": 5622,
      "èĽ": 5623,
      "ãģ©ãģ¡ãĤī": 5624,
      "ĠçĽ®": 5625,
      "ĠRTãģķãĤĮãģŁæķ°": 5626,
      "Ġâł": 5627,
      "oogle": 5628,
      "35": 5629,
      "ãĤīãģĽãģ¦": 5630,
      "ãĥ©ãĥ³ãĤ¯": 5631,
      "èĩªä½ĵ": 5632,
      "ãĤ¨ãĤ¢": 5633,
      "åĲįåı¤å±ĭ": 5634,
      "Ar": 5635,
      "ãģĹãĤħ": 5636,
      "æŃĮãģĦæīĭ": 5637,
      "å¿į": 5638,
      "ãģ®ãģ¨": 5639,
      "ä¸įæĺİ": 5640,
      "åĩºãģ¦ãģıãĤĭ": 5641,
      "ĠæĦŁ": 5642,
      "')": 5643,
      "ãģŃãĤĢ": 5644,
      "ãģĶè¦§": 5645,
      "ãĤĪãģĨãģ«ãģªãģ£ãģŁ": 5646,
      "ãĥ´ãĤ£": 5647,
      "æ§ĺãģ®": 5648,
      "åŃ¦ç¿Ĵ": 5649,
      "ä¸ĭãģĮ": 5650,
      "ãģĬãĤĦãģĻãģ¿ãģªãģķãģĦ": 5651,
      "è©°ãĤģ": 5652,
      "DJ": 5653,
      "åĪ¶éĻĲ": 5654,
      "ãģĤãĤĵãģ¾ãĤĬ": 5655,
      "ãĤĮãģĹãģĦ": 5656,
      "ãģĶãģ¯ãĤĵ": 5657,
      "èĩ³": 5658,
      "æĦŁåĭķ": 5659,
      "ãĤ¨ãĥ³ãĤ¸ãĥĭãĤ¢": 5660,
      "è³Ģ": 5661,
      "æİĽãģĳ": 5662,
      ":...<": 5663,
      "ç¼¶": 5664,
      "ãĤĤãģªãģı": 5665,
      "ä¸»å¼µ": 5666,
      "Ġæīĭ": 5667,
      "ĠQ": 5668,
      "ãĤĴå®Ī": 5669,
      "âĹ¢": 5670,
      "è¦ģç´ł": 5671,
      "ãģĹãĤī": 5672,
      "ãģ®æ³": 5673,
      "ãģ²ãĤį": 5674,
      "ãģ«ãģªãģ£ãģ¦ãģĦãĤĭ": 5675,
      "ooth": 5676,
      "ãģĮå¤ļ": 5677,
      "ãģłãģĳãģ®": 5678,
      "ould": 5679,
      "è©¦é¨ĵ": 5680,
      "ãģ¯ãģ¾ãģł": 5681,
      "ãģıãģĺ": 5682,
      "ãĤĪãģĨãģ§ãģĻ": 5683,
      "åĭĺ": 5684,
      "æĸ°ä½ľ": 5685,
      "ç¯Ħ": 5686,
      "ĠÌģêĴ³`*)": 5687,
      "over": 5688,
      "ĠãĤ¯": 5689,
      "ãģĭãģĻ": 5690,
      "ãĥŀãĤ·": 5691,
      "ãģ¨ãģĭãģ§": 5692,
      "ãĢħãģ¨": 5693,
      "æŃ£çĽ´": 5694,
      "ãģ¨ãģ£ãģ¦ãĤĤ": 5695,
      "ãģĭãĤĮãģ¦": 5696,
      "éŃĤ": 5697,
      "æģ¥": 5698,
      "CP": 5699,
      "ike": 5700,
      "ãĤĴå¾Ĺ": 5701,
      "ä½ľæĪĲ": 5702,
      "ãģ®æīĭ": 5703,
      "ãĥĲãĥ³ãĥī": 5704,
      "å£²ãĤĬ": 5705,
      "æŀļçĽ®": 5706,
      "me": 5707,
      "áĹľ": 5708,
      "ãģįãģ£ãģ¨": 5709,
      "éĢ±æľ«": 5710,
      "âĢįâĻĤï¸ı": 5711,
      "å¦¹": 5712,
      "????????": 5713,
      "ãģ¨ãģªãĤĬãģ¾ãģĻ": 5714,
      "ĠæĿ±äº¬": 5715,
      "ĠãģĿãģĵ": 5716,
      "ãĤ¸ãĥ£ãĥ³": 5717,
      "£ç¯Ģ": 5718,
      "ãĤĴè¡Į": 5719,
      "ãģ®æ¨": 5720,
      "æĸ°åŀĭ": 5721,
      "ãģĹãģıãģł": 5722,
      "è¥²": 5723,
      "ãĥĸãĥŃãĥĥãĤ¯": 5724,
      "ķãģį": 5725,
      "åĭĩ": 5726,
      "å¾ĵ": 5727,
      "ãģĦãģŁãģĹãģ¾ãģĹãģŁ": 5728,
      "æ±Ł": 5729,
      "åĸ¶æ¥Ń": 5730,
      "ãĤĤãģ¡ãĤįãĤĵ": 5731,
      "ãĢľ(": 5732,
      "åıĹä»ĺ": 5733,
      "Ġæĸ°ãģĹãģĦ": 5734,
      "WW": 5735,
      "ãģ«ãģ¨ãģ£ãģ¦": 5736,
      "ç¨®é¡ŀ": 5737,
      "ãģ«å¯¾ãģĻãĤĭ": 5738,
      "ãģķãģĽãģ¦ãģĦãģŁãģłãģįãģ¾ãģĹãģŁ": 5739,
      "è¨ºæĸŃ": 5740,
      "appy": 5741,
      "ãĤģãĤĵãģªãģķãģĦ": 5742,
      "ãģªãģĵãģ¨": 5743,
      "æıĥ": 5744,
      "ãĤ½ãĥ¼ãĤ¹": 5745,
      "Ġãģ¾ãģķ": 5746,
      "å¾©æ´»": 5747,
      "ãģ®åŃ¦": 5748,
      "ãĤ³ãĥ³ãĥĵ": 5749,
      "/...<": 5750,
      "ãģĹãģĭãģĹãģ¦": 5751,
      "ãĥĻãĥ¼ãĤ¹": 5752,
      "ãĤĴåĩº": 5753,
      "ðŁĴľ": 5754,
      ".........": 5755,
      "ãģ¶ãĤĬ": 5756,
      "ãĥķãĤ©ãĥŃãĥĲ": 5757,
      "å§ĭãģ¾": 5758,
      "ace": 5759,
      "TL": 5760,
      "ãģĭãģģ": 5761,
      "å¾´": 5762,
      "ork": 5763,
      "è«¦": 5764,
      "èģŀãģį": 5765,
      "ice": 5766,
      "ĠãģĬçĸ²ãĤĮæ§ĺãģ§ãģĹãģŁ": 5767,
      "AD": 5768,
      "çĽĹ": 5769,
      "ãĥ¡ãĥ¼ãĥ«": 5770,
      "æĸ°äºº": 5771,
      "ĠãģĬçĸ²ãĤĮæ§ĺãģ§ãģĻ": 5772,
      "âĭĨ": 5773,
      "Ġ;": 5774,
      "ãĥŃãĥ¼ãĥ«": 5775,
      "âĿ¤ï¸ı<": 5776,
      "Ġå½¼": 5777,
      "Ì¥Ì¥": 5778,
      "æĸ¹ãĤĤ": 5779,
      "ãģ®æĸ¹ãģ¯": 5780,
      "ðĵĤĥ": 5781,
      "ĪĴ": 5782,
      "ãĥ¼ãĥ¢": 5783,
      "åĢī": 5784,
      "å²©": 5785,
      "éĬĥ": 5786,
      "ãģ£ãģŁãģĳãģ©": 5787,
      "å°ıèª¬": 5788,
      "ĠåŃ¦": 5789,
      "ãĥĦãĤ¤ãĥ¼ãĥĪãĤĴ": 5790,
      "åĸĭ": 5791,
      "çŁ¥ãĤīãĤĵ": 5792,
      "ãĤ»ãĥ³ãĤ¿ãĥ¼": 5793,
      "åī¤": 5794,
      "???<": 5795,
      "ãĥļãĥ³": 5796,
      "ãģĤãģŁ": 5797,
      "ãģĻãĤĭãģĵãģ¨": 5798,
      "ðŁĴŀ": 5799,
      "ãģĽãģŁ": 5800,
      "ãĥĸãĥ©ãĥĥãĤ¯": 5801,
      "ãĥŃãĥ¼ãĤ½ãĥ³": 5802,
      "äºĭãģ§": 5803,
      "è¦ĭãģ¦ãĤĭ": 5804,
      "çĬ¯ç½ª": 5805,
      "`ãĥ»": 5806,
      "ãĤ¤ãĥ³ãĥķ": 5807,
      "ãĤ¢ãĥ©": 5808,
      "å¯º": 5809,
      "ãģ¡ãģªãģ¿ãģ«": 5810,
      "ãĥŀãĥĥãĥģ": 5811,
      "çī©ãĤĴ": 5812,
      "áĲŁ": 5813,
      "èĥĮæĻ¯": 5814,
      "æ°Ĺä»ĺ": 5815,
      "é¶": 5816,
      "æĽ¸ãģı": 5817,
      "ãĥĽãĥŃ": 5818,
      "æ¶Īè²»": 5819,
      "ãĥĥãĤ«ãĥ¼": 5820,
      "©Ń": 5821,
      "ãĤªãĥ¬": 5822,
      "åĲĪè¨Ī": 5823,
      "ç«ĭãģ¤": 5824,
      "æĲº": 5825,
      "The": 5826,
      "ãģ¦ãģĦãĤĭ": 5827,
      "ãĤĬãģ¨": 5828,
      "Ġå¥": 5829,
      "......ãĢĤ": 5830,
      "ãģĭãģĮ": 5831,
      "ãĥ¼ãĥĿ": 5832,
      "ãģ¿ãģ®": 5833,
      "ãģĦãģ¾ãģĻãģĮ": 5834,
      "æ¥½ãģĹãĤĵãģ§": 5835,
      "ãģ¿ãģ¦ãģıãģłãģķãģĦ": 5836,
      "ĠIn": 5837,
      "ĠçĻº": 5838,
      "ãĤ¢ãĤ¤ãĥĨãĥł": 5839,
      "Ġæµ·": 5840,
      "ĠæľĪ": 5841,
      "ox": 5842,
      "é¯": 5843,
      "Ġå¤ļåĪĨ": 5844,
      "ĠãĥĻ": 5845,
      "ãĤ³ãĥ¼ãĥĴ": 5846,
      "Ġãģ¾ãģĺ": 5847,
      "Ġcan": 5848,
      "çªģçł´": 5849,
      "ç¹°ãĤĬè¿Ķ": 5850,
      "Ġãĥ«": 5851,
      "èģ·åł´": 5852,
      "ãģŁãģ¡ãģ¯": 5853,
      "åĪĳ": 5854,
      "Ġãĥ¦": 5855,
      "ãĤ«ãĥ¬ãĥ¼": 5856,
      "ĠæĺĶ": 5857,
      "ĠãĢĲ#": 5858,
      "åħ¬åľĴ": 5859,
      "ðŁĺĢ": 5860,
      "å¾ĮæĹ¥": 5861,
      "ãĤ½ãĤ³ãĥ³": 5862,
      "èµ·ãģįãģŁ": 5863,
      "ĠåĭķçĶ»": 5864,
      "Ġä»ķäºĭ": 5865,
      "ãĤŃãĥ£ãĥ³": 5866,
      "âĢ¢Ìģ": 5867,
      "ãĤĴä½ľãĤĭ": 5868,
      "APEX": 5869,
      "ãģ®ãĤĵ": 5870,
      "ãĥ¼ãĥı": 5871,
      "ãĥĲãĥĪãĥ«": 5872,
      "è¨ĺéĮ²": 5873,
      "å¤īãĤıãĤĭ": 5874,
      "ãĥįãĤ³": 5875,
      "ãĥĪãĥ¬ãĥ³ãĥī": 5876,
      "GBT": 5877,
      "°(": 5878,
      "ãģıãĤı": 5879,
      "éģ£": 5880,
      "æĥ³åĥı": 5881,
      "éĢ²åĮĸ": 5882,
      "åĦªåħĪ": 5883,
      "æīĭãģ«åħ¥": 5884,
      "åĲįæ§ĺ": 5885,
      "é£Ľè¡Į": 5886,
      "ãĥ¾": 5887,
      "âĢ»": 5888,
      "ç·ĳ": 5889,
      "çµĲæŀľãģ¯": 5890,
      "Ġå®Łãģ¯": 5891,
      "ãģĪãĤĵ": 5892,
      "åħ¨ä½ĵ": 5893,
      "çĽ®æ¨Ļ": 5894,
      "ç¤¾åĵ¡": 5895,
      "ðĵĪĴ": 5896,
      "çł´å£Ĭ": 5897,
      "ãģķãģ¾ãģ§ãģĹãģŁ": 5898,
      "FGO": 5899,
      "ãĤıãģĽãģ¦": 5900,
      "Ġæ¸": 5901,
      "æĬ±": 5902,
      "ãģŁãģª": 5903,
      "ãģĭãģ§": 5904,
      "ãĥ¬ãĥ³": 5905,
      "å¯§": 5906,
      "ãģŁãģ¡ãģ®": 5907,
      "çĢ¬": 5908,
      "ãģĭãģĳãģŁ": 5909,
      "ãĥķãĥŃ": 5910,
      "æ¥½æĽ²": 5911,
      "ĠãģĨãģ¡": 5912,
      "åį±éĻº": 5913,
      "è±ªèı¯": 5914,
      "ãģĦãģįãģ¾ãģĻ": 5915,
      "ãĥŀãĥŀ": 5916,
      "æķ°ãģĮ": 5917,
      "ç©´": 5918,
      "éĻĲçķĮ": 5919,
      "å¼ķçĶ¨": 5920,
      "ä¸ĬãģĮãĤĬ": 5921,
      "()": 5922,
      "TM": 5923,
      "tube": 5924,
      "ãĤ½ãĥŃ": 5925,
      "ãģĹãģªãģĦãģ§": 5926,
      "åıİéĮ²": 5927,
      "age": 5928,
      "ĠãĤĪãģı": 5929,
      "ãģŁãģĳãģ©": 5930,
      "ðŁĴ¨": 5931,
      "æŃ¢ãĤģ": 5932,
      "ãģĦãģĺ": 5933,
      "ãĤĤãģĦãģĦ": 5934,
      "ãģ©ãĤĵãģ©ãĤĵ": 5935,
      "ãĥ³ãĥĿ": 5936,
      "ĠãģĤãģ®": 5937,
      "èĭ¥ãģĦ": 5938,
      "ãģĹãģıãģłãģķãģĦ": 5939,
      "·±": 5940,
      "ãģĳãģ¾ãģĹãģ¦": 5941,
      "ãģĤãĤĬãģ¾ãģĹãģŁ": 5942,
      "èī¯ãģį": 5943,
      "ãĤģãģ§ãģ¨": 5944,
      "ä»²èī¯ãģı": 5945,
      "ĠãĤ²ãĥ¼ãĥł": 5946,
      "ãģĵãģĵãģ¾ãģ§": 5947,
      "ĠãĤ¢ãĥĭ": 5948,
      "ãģ®å°ı": 5949,
      "ä»¤åĴĮ": 5950,
      "¸ë": 5951,
      "æ¾": 5952,
      "ĠãĤĬ": 5953,
      "ĠãģĤãĤĭ": 5954,
      "éĽĦ": 5955,
      "èĪª": 5956,
      "Ġwas": 5957,
      "æŃ¢ãģ¾": 5958,
      "ãģĮãģĤãĤĮãģ°": 5959,
      "300": 5960,
      "ãģ®æł": 5961,
      "ĠIt": 5962,
      "Ġnot": 5963,
      "ãģ®å½±": 5964,
      ")ãĢĤ": 5965,
      "GM": 5966,
      "æ¿ĥ": 5967,
      "Ġåħĥ": 5968,
      "ãģ¤ãģĳãĤĭ": 5969,
      "ãĥŁãĥ©": 5970,
      "ç·łåĪĩ": 5971,
      "'t": 5972,
      "Ġå¤ľ": 5973,
      "łï¸ı": 5974,
      "ãĥıãĥ¼ãĥī": 5975,
      "ãĤĪãĤįãģĹãģıãģĬé¡ĺãģĦèĩ´ãģĹãģ¾ãģĻ": 5976,
      "Bl": 5977,
      "ãĤĴçŁ¥": 5978,
      "ãģĹãģŁãģĳãģ©": 5979,
      "åĪĿéŁ³ãĥŁãĤ¯": 5980,
      "éĸĭå§ĭãģĹãģ¾ãģĹãģŁ": 5981,
      "å·»ãģį": 5982,
      "ãģ£ãģŁãģ®ãģ§": 5983,
      "ãģ¾ãģĽãĤĵãģĭ": 5984,
      "æ£Ĵ": 5985,
      "éģ©å½ĵ": 5986,
      "ãĥ©ãĤ¹ãĥĪ": 5987,
      "ðŁĴĲ": 5988,
      "åł±éģĵ": 5989,
      "å¼ķãģ£": 5990,
      "act": 5991,
      "ç¸®": 5992,
      "éĤªéŃĶ": 5993,
      "OL": 5994,
      "Îµ": 5995,
      "åĪĨãģĭãĤī": 5996,
      "âĶģâĶģâĶģâĶģâĶģâĶģâĶģâĶģ": 5997,
      "ãģ¾ãģĺãģ§": 5998,
      "ĠãģĬãģ¤ãģĭãĤĮ": 5999,
      "çĤºãģ«": 6000,
      "Ġå¹´": 6001,
      "ãĥ¼ãĥĭãĥ³ãĤ°": 6002,
      "ãĤ²ãĤ¹ãĥĪ": 6003,
      "ĠCh": 6004,
      "æ°·": 6005,
      "ĠãģĵãĤĮãģĮ": 6006,
      "çµĤãĤıãĤĭ": 6007,
      "Ī´": 6008,
      "ãģ«ãģªãĤĬãģ¾ãģĻãĤĪãģĨãģ«": 6009,
      "ãģıãģķãĤĵ": 6010,
      "Ġåī": 6011,
      "ãģ®ä¸Ńãģ«": 6012,
      "æĬķãģĴ": 6013,
      "ãĥĪãĤ¥ãĥ¼ãĥ³": 6014,
      "MV": 6015,
      "ä¸ĩäºº": 6016,
      "éłĤãģįãģ¾ãģĹãģŁ": 6017,
      "æ¹¾": 6018,
      "å©¦": 6019,
      "ðŁĮŀ": 6020,
      "åĨħãģ«": 6021,
      "ft": 6022,
      "æĹ¥éĸĵ": 6023,
      "Ġå²": 6024,
      "ĠçĮ": 6025,
      "éħ¸": 6026,
      "å¤īåĮĸ": 6027,
      "åĦªåĭĿ": 6028,
      "ãģĹãģ¡ãĤĥãģĨ": 6029,
      "æĸ¹ãģ«": 6030,
      "éĩ£": 6031,
      "åĭķãģį": 6032,
      "âĢ¢ÌĢ": 6033,
      "Ġ^": 6034,
      "ãģ®æı": 6035,
      "æĦŁãģĺãģ§": 6036,
      "ãģ¦ãģªãģĦ": 6037,
      "æ¢ħ": 6038,
      "ct": 6039,
      "ãĥĹãĥĩ": 6040,
      "äºĭåĭĻ": 6041,
      "ãģŁãģ¶ãĤĵ": 6042,
      "ãģ¿ãģ¾ãģĻ": 6043,
      "ãĤ«ãĤ¹ãĤ¿": 6044,
      "ãĤ»ãĤ¹": 6045,
      "èĩªåĪĨãģ¯": 6046,
      "è¼Ŀ": 6047,
      "ĠVer": 6048,
      "åįĴæ¥Ń": 6049,
      "ãĥ³ãĥĵ": 6050,
      "æıļ": 6051,
      "ãģĿãĤĮãģŀãĤĮ": 6052,
      "æķĻä¼ļ": 6053,
      "ãĥªãĥ³ãĤ¯": 6054,
      "æµģãĤĮãģ¦": 6055,
      "ãģĵãĤĵãģªãģ«": 6056,
      "ãģĹãģ¦ãģıãĤĮ": 6057,
      "ãĥĥãĤŃãĥ¼": 6058,
      "åı«": 6059,
      "åıĤæĪ¦": 6060,
      "ãģ¾ãģĽãĤĵãģĮ": 6061,
      "å¤§äºĭãģ«": 6062,
      "Î±": 6063,
      "Ġup": 6064,
      "ãĢĤ.": 6065,
      "âĹ¡": 6066,
      "éĽ»æ°Ĺ": 6067,
      "é¨İ": 6068,
      "Ġpro": 6069,
      "å¤§ãģįãģĦ": 6070,
      "éºº": 6071,
      "é£Ľãģ°": 6072,
      "ãģ¨ãģĦãģĳãģªãģĦ": 6073,
      "Ġå¥½ãģįãģª": 6074,
      "ãĢľ!<": 6075,
      "âī¦)": 6076,
      "ne": 6077,
      "ãģ®ãĥľ": 6078,
      "ãģ®æĽ²": 6079,
      "ãģĭãģĭãĤĭ": 6080,
      "ãģĹãģ¦ãģ»ãģĹãģĦ": 6081,
      "åħŃ": 6082,
      "ãģ®æĤª": 6083,
      "ðŁĴķðŁĴķ": 6084,
      "æ¬¡ç¬¬": 6085,
      "éĽ»åŃĲ": 6086,
      "éĩİçĲĥ": 6087,
      "çªģçĦ¶": 6088,
      "BS": 6089,
      "NHK": 6090,
      "ĠãĤģãģ¡ãĤĥãģıãģ¡ãĤĥ": 6091,
      "Ġæĭ": 6092,
      "èĩªæ°ĳåħļ": 6093,
      "ðŁĴ¥": 6094,
      "ãĤ·ãĥ§ãĥĥãĥĹ": 6095,
      "åħ·åĲĪ": 6096,
      "âĿĵ": 6097,
      "ãĤ²ãĥĥãĥĪ": 6098,
      "ç¬¬ä¸Ģ": 6099,
      "ðŁ¦Ĭ": 6100,
      "éĽĢ": 6101,
      "ãĤĴæ¥½ãģĹ": 6102,
      "æĻĤéĸĵãģ«": 6103,
      "åľ°çįĦ": 6104,
      "iss": 6105,
      "èª²é¡Į": 6106,
      "ãģ®åİŁ": 6107,
      "ãĥĭãĥ£": 6108,
      "ä½¿ãģ£ãģ¦ãĤĭ": 6109,
      ")_": 6110,
      "ÑĢ": 6111,
      "ãĥ¬ãĥ¼ãĥĪ": 6112,
      "ãĤ·ãĥ³ãĤ°": 6113,
      "åīĩ": 6114,
      "éģİãģİãĤĭ": 6115,
      "ä»ĬåĽŀãģ¯": 6116,
      "ãĤªãĥ¼ãĥĹãĥ³": 6117,
      "ãģķãĤī": 6118,
      "å£ģ": 6119,
      "æ¬ł": 6120,
      "éĸ¢éĢ£": 6121,
      "ãģĬãģĬãģĬãģĬãģĬãģĬãģĬãģĬ": 6122,
      ":*": 6123,
      "ãĥ©ãĥł": 6124,
      "å¼Ł": 6125,
      "å¥¥": 6126,
      "ãģĵãĤĮãģĭãĤīãĤĤ": 6127,
      "å¦»": 6128,
      "ãģ¨ä¸Ģç·Ĵãģ«": 6129,
      "ãģĹãģ¦ãģĦãģı": 6130,
      "ãĥ«ãĤ¯": 6131,
      "ãģ¨æĢĿãģ£ãģ¦ãĤĭ": 6132,
      "ãĤ¹ãĥĨãĥ¼ãĤ¸": 6133,
      "Ġä¸ĸçķĮ": 6134,
      "Īë": 6135,
      "ãģĨãĤĭ": 6136,
      "ãĤ¿ãĤ¤ãĥĪãĥ«": 6137,
      "ãĤ·ãĥ§ãĥ¼ãĥĪ": 6138,
      "ä»ķæ§ĺ": 6139,
      "ĠçĶŁ": 6140,
      "å¯©": 6141,
      "ãģłãģĳãģ¯": 6142,
      "Ġal": 6143,
      "çį²": 6144,
      "æı¡": 6145,
      "åŃĲãģ®": 6146,
      "æŃ»ãģ«": 6147,
      "ãģķãģ¨": 6148,
      "ãĤ·ãĥ¼ãĤº": 6149,
      "ãĤªãĤ±": 6150,
      "âľ¨ï¸ı": 6151,
      "ãģłãģĳãģ§ãĤĤ": 6152,
      "ĠãģĤãĥ¼": 6153,
      "æĺİãĤī": 6154,
      "æµģè¡Į": 6155,
      "ãģ®å¼·": 6156,
      "ãģªãģĦãģ§ãģĻ": 6157,
      "Ġyour": 6158,
      "ãĤīãģĮ": 6159,
      "~~~": 6160,
      "(?)": 6161,
      "ĠçľŁ": 6162,
      "æĽ¸ãģĦãģŁ": 6163,
      "åĪĩãĤĮ": 6164,
      "ãģªãģ©ãģ®": 6165,
      "ãģĹãģ¦ãģĹãģ¾ãģ£ãģŁ": 6166,
      "ãģ¨ãģįãģ¯": 6167,
      "pr": 6168,
      "ãģ¡ãĤħ": 6169,
      "ãĤįãģĦ": 6170,
      "äºĪåĳĬ": 6171,
      "è³ĩæĸĻ": 6172,
      "ãģĬãģĻãģĻãĤģ": 6173,
      "ä»ĬæľĪ": 6174,
      "ãģ«ãģªãĤĬãģŁãģĦ": 6175,
      "Ġ100": 6176,
      "å®īãģĦ": 6177,
      "æŃ£ãģĹãģĦ": 6178,
      "Ġå¤§ä¸Īå¤«": 6179,
      "å°ĤéĸĢ": 6180,
      "çıį": 6181,
      "10000": 6182,
      "èħĲ": 6183,
      "ĠáĲ": 6184,
      "ãĥĥãĤ±": 6185,
      "ãĢį(": 6186,
      "è¦ĭãģŁãĤī": 6187,
      "åħ±ãģ«": 6188,
      "ES": 6189,
      "eam": 6190,
      "ãģŁãģ³": 6191,
      "åĲĪãģĬãģĨ": 6192,
      "åŃĲãģ©ãĤĤ": 6193,
      "ä¿ĿéĻº": 6194,
      "ĠçĻ½": 6195,
      "è¤ĩæķ°": 6196,
      "åºģ": 6197,
      "è¼ĥ": 6198,
      "é£²ãĤĢ": 6199,
      "Ġex": 6200,
      "ä»Ĭå¹´ãĤĤ": 6201,
      "Ġå±±": 6202,
      "ãĥĳãĤ¤": 6203,
      "ãģ¨ãĤĤãģ«": 6204,
      "éĿ¢çĻ½ãģĭãģ£ãģŁ": 6205,
      "ãģĿãĤĵãģªãģ«": 6206,
      "ãĤĤãģĤãĤĬãģ¾ãģĻ": 6207,
      "ç·ĬæĢ¥": 6208,
      "ä¼ĿãģĪ": 6209,
      "å¡©": 6210,
      "ç¥ĿãģĦ": 6211,
      "ĠThank": 6212,
      "é¼»": 6213,
      "(ãĤļ": 6214,
      "ning": 6215,
      "è¨ĢãĤıãĤĮãģ¦": 6216,
      "ãĤ»ãĤ«": 6217,
      "ãĥĿãĥģ": 6218,
      "ãĤĴè¦ĭãĤĭ": 6219,
      "é»Ļ": 6220,
      "ãĤĴéĸĭ": 6221,
      "ãĤĮãģŁãĤī": 6222,
      "ãĤĵãģ§ãģĦãĤĭ": 6223,
      "ãģ«ãģĭãģı": 6224,
      "ãģ¾ãģ§æ¯İæĹ¥": 6225,
      "æºĢè¶³": 6226,
      "ĠæĮ": 6227,
      "ãģ¡ãĤĩãģĦ": 6228,
      "è¨Īç®Ĺ": 6229,
      "ãĤ¹ãĥĪãĥ¼ãĥªãĥ¼": 6230,
      "(ãĢĤ": 6231,
      "ãģĿãģ°": 6232,
      "åįģåĪĨ": 6233,
      "ãģ£ãģįãĤĬ": 6234,
      "§ĭ": 6235,
      "ãģ®ãĤª": 6236,
      "èĤ©": 6237,
      "æħ®": 6238,
      "Ġå¿ľåĭŁæĸ¹æ³ķ": 6239,
      "ãĤģãģ¾ãģĻ": 6240,
      "åĭĿãģ¡": 6241,
      "ãģ«éĸ¢ãģĻãĤĭ": 6242,
      "ãĤĴãģĹãģŁ": 6243,
      "èĢħãĤĴ": 6244,
      "æĻĤéĸĵãĤĴ": 6245,
      "èĪİ": 6246,
      "æĸĩç«ł": 6247,
      "Ġde": 6248,
      "ä»¥ä¸Ĭãģ«": 6249,
      "ãģĭãģĴãģ§": 6250,
      "ãģķãĤĵãĤĴ": 6251,
      "ãĥĬãĤ¤ãĥĪ": 6252,
      "éĤĦ": 6253,
      "ãģĤãģĴãĤĭ": 6254,
      "Ð¸": 6255,
      "à©Ń": 6256,
      "ãģĻãģĭ": 6257,
      "ãĤīãģ®": 6258,
      "çļĩ": 6259,
      "æ¤į": 6260,
      "ç¸¾": 6261,
      "åĲ¦å®ļ": 6262,
      "åĽ½ãģ®": 6263,
      "ãĤŃãĥ£ãĤ¹": 6264,
      "å°ıãģķ": 6265,
      "æ®ĭãĤĬ": 6266,
      "ãģ§ãģĤ": 6267,
      "ãģłãĤī": 6268,
      "ĠÌģ-": 6269,
      "ðŁĳĭ": 6270,
      "åºĥåĳĬ": 6271,
      "é¦¬é¹¿": 6272,
      "æĳĺ": 6273,
      "now": 6274,
      "owe": 6275,
      "ãĥ¯ãĤ¤ãĥĪ": 6276,
      "ãĥ³ãģ¯": 6277,
      "åĦŁ": 6278,
      "è¨ĺå¿µãĤŃãĥ£ãĥ³ãĥļãĥ¼ãĥ³": 6279,
      "Ġãĥģãĥ£": 6280,
      "ãģ£ãģ¦ãģĹãģ¾ãģ£ãģŁ": 6281,
      "Ġåģ": 6282,
      "ãģĤãģĤãģĤãģĤãģĤãģĤãģĤãģĤãģĤãģĤãģĤãģĤãģĤãģĤãģĤãģĤ": 6283,
      "OW": 6284,
      "ãģłãģªãģģ": 6285,
      "ä¸ĬãģĴãĤĭ": 6286,
      "Ġè¶ħ": 6287,
      "å¹¼": 6288,
      "æĸ°æĽ²": 6289,
      "ãģĹãĤĩãģĨãģĭ": 6290,
      "ãģĨãģ¡ãģ«": 6291,
      "ĠæĻ®éĢļ": 6292,
      "ãģĮä¸Ģ": 6293,
      "ãĢĤ...": 6294,
      "åĬ´åĥį": 6295,
      "!!(": 6296,
      "ĠðŁĻ": 6297,
      "ãĤīãģ¯": 6298,
      "ãĤ¹ãĥĪãĥ¬ãĤ¹": 6299,
      "ãģĬãĤģ": 6300,
      "å¥½ãģįãģ§ãģĻ": 6301,
      "ãģ¸ãģ¸": 6302,
      "Ġ)âķ¯": 6303,
      "èŀ": 6304,
      "ä¸Ĭãģ«": 6305,
      "RTãĤŃãĥ£ãĥ³ãĥļãĥ¼ãĥ³": 6306,
      "èħ°": 6307,
      "ãģĤãģªãģŁãģ®": 6308,
      "ãģ®åĽŀ": 6309,
      "æĺİæĹ¥ãģ¯": 6310,
      "ðŁ¥³ðŁ¥³": 6311,
      "éĽ°åĽ²æ°Ĺ": 6312,
      ">ãĢİ": 6313,
      "ãģ¾ãģĹ": 6314,
      "ãģĹãģ¦ãģ¾ãģĹãģŁ": 6315,
      "åıĮ": 6316,
      "ãĥ¡ãĤ¬": 6317,
      "ãģ¨ãģĭãĤĤ": 6318,
      "ound": 6319,
      "å®£ä¼Ŀ": 6320,
      "EL": 6321,
      "Yahoo": 6322,
      "!!ï¸İ": 6323,
      "ãĤ¯ãĤ¹": 6324,
      "ä¹¾": 6325,
      "æ°´æĺŁãģ®éŃĶå¥³": 6326,
      "ãģĹãģ°ãĤīãģı": 6327,
      "ãĤ³ãĥŁãĥ¥ãĥĭ": 6328,
      "ky": 6329,
      "Ġä¸į": 6330,
      "ãĥ«ãĥī": 6331,
      "ãģĿãģĨãģĦãģĪãģ°": 6332,
      "é£¾": 6333,
      "éĩĳãĤĴ": 6334,
      "æ±ļ": 6335,
      "ase": 6336,
      "ĠãĥĭãĤ³": 6337,
      "çĽ£çĿ£": 6338,
      "note": 6339,
      "Ġus": 6340,
      "ãģĹãģ¦ãģŃ": 6341,
      "æĺ¨": 6342,
      "ãģ¨ãģĭãģĦãģĨ": 6343,
      "æ½°": 6344,
      "ãģĨãģķãģİ": 6345,
      "ĠäºĮ": 6346,
      "ãĥ©ãĥĸ": 6347,
      "çı¾ä»£": 6348,
      "åĳ¼ãģ³": 6349,
      "Ġor": 6350,
      "éĿŀå¸¸ãģ«": 6351,
      "ä½įç½®": 6352,
      "ç½®ãģį": 6353,
      "æĹ¥ãģĮ": 6354,
      "ãĤªãĥı": 6355,
      "ãĥĸãĥ³": 6356,
      "ãĥīãĥ©ãĥŀ": 6357,
      "ãģĦãģ¯": 6358,
      "ãģĹãģıãģªãģĦ": 6359,
      "ãģłãģ£ãģŁãģĳãģ©": 6360,
      "çµµãĤĴ": 6361,
      "æľĿãģĭãĤī": 6362,
      "very": 6363,
      "åĩ¦çĲĨ": 6364,
      "ãģ®æµģ": 6365,
      "az": 6366,
      "ĥ³": 6367,
      "æľĪãģ«": 6368,
      "å½ĵçĦ¶": 6369,
      "ãĥ¼ãĤ¸ãĥ§ãĥ³": 6370,
      "ãģ«ãģĹãģ¦ãĤĤ": 6371,
      "éĸĭåĤ¬ä¸Ń": 6372,
      ":/...<": 6373,
      "ĠåĲĮ": 6374,
      "ðŁĺ¡": 6375,
      "ãĤĮãģ°ãģĦãģĦ": 6376,
      "æ·±ãģĦ": 6377,
      "ĠãģĦãģĦãģŃãģķãĤĮãģŁæķ°": 6378,
      "ãģĲãĤĭãģ¿": 6379,
      "ãĤ¹ãĥĹãĥ©ãĥĪãĤ¥ãĥ¼ãĥ³": 6380,
      "ãĥŀãĤ·ãĥ¥ãĥŀãĥŃãĤĴæĬķãģĴ": 6381,
      "ĠãģĬèªķçĶŁæĹ¥ãģĬãĤģãģ§ãģ¨ãģĨãģĶãģĸãģĦãģ¾ãģĻ": 6382,
      "ãĥĲãĥª": 6383,
      "ãĥĳãĥ¼ãĥĪ": 6384,
      "åľ°æĸ¹": 6385,
      "æģµ": 6386,
      "ãĥŀãĤ·ãĥ¥ãĥŀãĥŃãĤĴæĬķãģĴåĲĪãģĬãģĨ": 6387,
      "EW": 6388,
      "ãģĵãģªãģĦ": 6389,
      "æ©Łä¼ļ": 6390,
      "ãĥ³ãĤ¹ãĤ¿ãĥ¼": 6391,
      "Ð½": 6392,
      "å½ĵãģ¦": 6393,
      "ãģĵãģ®ãĥĦãĤ¤ãĥ¼ãĥĪãĤĴRT": 6394,
      "åİŁåĽł": 6395,
      "ãĥĭãĥ¥ãĥ¼": 6396,
      "ãģ«éĸ¢ãģĹãģ¦": 6397,
      "ãģĹãģ¦ãģĹãģ¾ãģĨ": 6398,
      "ãĤµãĥĸ": 6399,
      "Ġçı¾åľ¨": 6400,
      "ãģĵãģ®æĬķç¨¿ãĤĴRT": 6401,
      "Ġãģ»ãĤĵãģ¨": 6402,
      "Ħï¸ı": 6403,
      "ðŁĮ·": 6404,
      "ãģıãĤīãģĦãģ®": 6405,
      "ĠåĮĹ": 6406,
      "ãģĮä¸Ģçķª": 6407,
      "ãĢģãĢİ": 6408,
      "åĬª": 6409,
      "å±¥": 6410,
      "ä¸ĭæīĭ": 6411,
      "è¦ıåĪ¶": 6412,
      "å¾¡åº§": 6413,
      "ãģĬèħ¹": 6414,
      "ãĥ«ãĥķ": 6415,
      "ãģĶåıĤåĬł": 6416,
      "éĻ£": 6417,
      "ãĤ·ãĥ£ãĥĦ": 6418,
      "Ġç¬ĳ": 6419,
      "åĮĹæµ·éģĵ": 6420,
      "ĠãĥĹãĥŃ": 6421,
      "ãģĹãĤĵãģ©": 6422,
      "åĪĨãģĳ": 6423,
      "çĶŁçĶ£": 6424,
      "ang": 6425,
      "è¨ĪçĶ»": 6426,
      "ðŁĮ¸<": 6427,
      "âķ°(": 6428,
      "å®ŁéļĽãģ«": 6429,
      "èªł": 6430,
      "ãĤµãĥ©": 6431,
      "ãģªãģĭãģ£ãģŁãģ®ãģ§": 6432,
      "ull": 6433,
      "èĩŃ": 6434,
      "ĠÌģ;": 6435,
      "ãģ²ãģ¨ãģ¤": 6436,
      "ãģªãģ®ãģł": 6437,
      "ãĤ¢ãĤ¤ãĤ³ãĥ³": 6438,
      "å®ľãģĹãģıãģĬé¡ĺãģĦãģĹãģ¾ãģĻ": 6439,
      "pex": 6440,
      "ãģĹãģ¦ãģ¿ãģŁ": 6441,
      "è§£ç¦ģ": 6442,
      "å§ĭãģ¾ãĤĭ": 6443,
      "æĭ¶": 6444,
      "ĠãģĿãĤĤ": 6445,
      "¨æĭ¶": 6446,
      "ãĥĵãĤ¸": 6447,
      "è¦ıæ¨¡": 6448,
      "ãĤ¤ãĤ¢": 6449,
      "éĢļå¸¸": 6450,
      "ãĢħãģª": 6451,
      "è¾¼ãĤĵãģł": 6452,
      "ãģ«è¡Įãģ£ãģŁ": 6453,
      "Ġéķ·": 6454,
      "ãģ®éŁ³": 6455,
      "ĠìĿ": 6456,
      "æĴ®ãĤĬ": 6457,
      "ãĤĪãģĨãĤĦãģı": 6458,
      "æ¸ĭ": 6459,
      "è¡¨æĥħ": 6460,
      "æµģçŁ³ãģ«": 6461,
      "ãĤĤãĤīãģ£ãģŁ": 6462,
      "ãģ¯ä¸Ģ": 6463,
      "ãģĵãĤĵãģ°ãĤĵãģ¯": 6464,
      "ãĥ¡ãĥĩãĤ£ãĤ¢": 6465,
      "æĪ¯": 6466,
      "å¢ĹãĤĦ": 6467,
      "ãĤıãģĳãģ§": 6468,
      "éĸĵéģķãģĦ": 6469,
      "æıĲä¾Ľ": 6470,
      "ãģªãĤĵãģ§ãģĻãģŃ": 6471,
      "ãĤĵãģłãĤį": 6472,
      "çī©ãģ®": 6473,
      "ãĤ´ãĥ³": 6474,
      "ãģıãģªãĤĬ": 6475,
      "ãĥŃãĥĥãĥĪ": 6476,
      "æĺĩ": 6477,
      "ç¤¾éķ·": 6478,
      "æľīéĽ£": 6479,
      "æ¶Ļ": 6480,
      "ãĥ¼ãĥ¼ãĥ¼ãĥ¼ãĥ¼ãĥ¼ãĥ¼ãĥ¼": 6481,
      "¨ãģĹ": 6482,
      "ãģĤãĤĭãģĳãģ©": 6483,
      "ï¸İï¸İ": 6484,
      "ixiv": 6485,
      "å¬": 6486,
      "ãģĭãĤĮãĤĭ": 6487,
      "ãģıãĤĬ": 6488,
      "Ġ22": 6489,
      "ãĢĤãĢĤãĢĤ<": 6490,
      "ìķ": 6491,
      "ãģĭãĤĪ": 6492,
      "éĢ®": 6493,
      "ãĥĹãĥ¬ãĥŁãĤ¢": 6494,
      "åĸļ": 6495,
      "åĨįæİ²": 6496,
      "è¬İè§£": 6497,
      "ãĤĴè¶ħ": 6498,
      "ãĤ«ãĥ¬": 6499,
      "ä»ĬãģĭãĤī": 6500,
      "æĢ§æł¼": 6501,
      "éĢ£ä¼ĳ": 6502,
      "âĺĢ<": 6503,
      "ãĤ¤ãĤ¤": 6504,
      "çĦ¡è¦ĸ": 6505,
      "æ·»": 6506,
      "ãģłãĤģ": 6507,
      "ãĥŀãĥį": 6508,
      "éĿ©": 6509,
      "âĹį": 6510,
      "çĶ·åŃĲ": 6511,
      "ç¯ĦåĽ²": 6512,
      "å¾¹": 6513,
      "Ġä»Ĭå¾Į": 6514,
      "Ġso": 6515,
      "Ġãģ¨ãģ¦ãĤĤ": 6516,
      "éĢ®æįķ": 6517,
      "EC": 6518,
      "LIVE": 6519,
      "ĠãĤĤãģ¡": 6520,
      "âķ¹": 6521,
      "ĠçļĨæ§ĺ": 6522,
      "âĽ": 6523,
      "ãģĮæĤªãģĦ": 6524,
      "æ±ģ": 6525,
      "æľĢå¾Įãģ®": 6526,
      "åĪĿå¿ĥèĢħ": 6527,
      "ŃåĴĮ": 6528,
      "ãĤ¨ãĥ³": 6529,
      "ãģ¡ãĤĥãĤĵãģ«": 6530,
      "éĢļçŁ¥": 6531,
      "å±ķç¤º": 6532,
      "ãģĮãģ¡": 6533,
      "ĠçĲ": 6534,
      "å®Łé¨ĵ": 6535,
      "ãģ¿ãĤĵãģªãģ§": 6536,
      "Ġhttp": 6537,
      "éĻįãĤĬ": 6538,
      "Ġ#...<": 6539,
      "ãģįãĤī": 6540,
      "ãĥ¯ãĥ¼ãĥī": 6541,
      "çĦ¡éĻĲ": 6542,
      "ãģ¿ãģŁãģĦãģ§ãģĻ": 6543,
      "ãģĮãģĤãĤĭãģ®ãģ§": 6544,
      "ðĵı": 6545,
      "Ġæ¯İ": 6546,
      "äºĴãģĦ": 6547,
      "OC": 6548,
      "ãģ£ãģ¤": 6549,
      "ãģĬãģĭãģĹãģĦ": 6550,
      "ãĥŀãĤ¤ãĥĬ": 6551,
      "çµĦç¹Ķ": 6552,
      "Ġãģ¯ãģĺ": 6553,
      "ends": 6554,
      "ãĤĴå¤ī": 6555,
      "ãĤµãĥł": 6556,
      "ìŀ": 6557,
      "Ġãģ§ãģĻ": 6558,
      "Ġout": 6559,
      "äººé¡ŀ": 6560,
      "ãĤ¸ãĥ¼": 6561,
      "ĠãģĦãģĪ": 6562,
      "ãĥ¼ãĥĬãĥ¼": 6563,
      "ĠâłĢ": 6564,
      "ĠåıĹãģĳåıĸ": 6565,
      "ãĥŀãĥĪ": 6566,
      "ä½İãģĦ": 6567,
      "ĠãģªãĤĵãģ¨": 6568,
      "ãģ®å½±éŁ¿": 6569,
      "ãģªãģĨ": 6570,
      "éĢļä¿¡": 6571,
      "ãģ¾ãģłãģ¾ãģł": 6572,
      "ä¿ºãģ®": 6573,
      "Ġå¾ħ": 6574,
      "á·": 6575,
      "ĠãģĹãģĭãģĹ": 6576,
      "ãģĹãģ¦ãģĦãģªãģĦ": 6577,
      "åħ±çĶ£": 6578,
      "ãģĤãģĴãģ¦": 6579,
      "II": 6580,
      "ĠX": 6581,
      "èĩªä¿¡": 6582,
      "âĹ¤": 6583,
      "å¤©æīį": 6584,
      "ãĤ¦ãĥł": 6585,
      "ãĤ¦ãĥ³ãĥī": 6586,
      "éĢģãĤĬ": 6587,
      "ç³ĸ": 6588,
      "Ġlike": 6589,
      "ãĤĵãģłãģª": 6590,
      "åĪĿãģ®": 6591,
      "ç³»ãģ®": 6592,
      "lay": 6593,
      "ãĥĹãĥŃãĤ¸ãĤ§ãĤ¯ãĥĪ": 6594,
      "Ġå¯¾": 6595,
      "ðŁĻĤ": 6596,
      "ĠãģĿãĤĤãģĿãĤĤ": 6597,
      "Ġun": 6598,
      "ãģªäºº": 6599,
      "ãģĵãĤĵãģ«ãģ¡ãģ¯": 6600,
      "ãĤ°ãĥŃ": 6601,
      "ãĥĨãĥĪ": 6602,
      "ä¸ĭãģĴ": 6603,
      "ĠåĢĭäºº": 6604,
      "(;": 6605,
      "ĠãģŃ": 6606,
      "ĠãĥªãĥĹ": 6607,
      "ãĥ¡ãĥ³ãĥĲãĥ¼": 6608,
      "éĩĪ": 6609,
      "ãĥĦãĤ¤ãĥĥãĤ¿ãĥ¼": 6610,
      "ä»®éĿ¢ãĥ©ãĤ¤ãĥĢãĥ¼": 6611,
      "çĿ¡çľł": 6612,
      "ãģ®éĸĵ": 6613,
      "ãģ¯ãģĦãģĦ": 6614,
      "ãĥ©ãĥ³ãĥī": 6615,
      "ãĥ¡ãĥŃ": 6616,
      "ãģ¨æĢĿãģĦ": 6617,
      "æİĺ": 6618,
      "ðŁĺĬðŁĺĬ": 6619,
      "ãģŁãģ¾ãģ«": 6620,
      "ĠãĥĦãĤ¤ãĥ¼ãĥĪæķ°": 6621,
      "kg": 6622,
      "ĠãĢį": 6623,
      "ĠãģĮãĤĵãģ°": 6624,
      "ĥéĻ¤": 6625,
      "ãģ£ãģ¦ãģıãģłãģķãģĦ": 6626,
      "ãĤıãģĭãĤī": 6627,
      "ĠãģĬãģ£": 6628,
      "ãĢĳãĢĲ": 6629,
      "âĢ¹": 6630,
      "ãģ®äººãģ¯": 6631,
      "æ°ĹãģĮãģĹãģ¾ãģĻ": 6632,
      "ĠðŁĮ¸": 6633,
      "Ġà¥ĳêĴ³": 6634,
      "ãĤ¹ãĥ¬": 6635,
      "ãĥŃãĤ¦ãĤ£": 6636,
      "æĪ¿": 6637,
      "æŁĲ": 6638,
      "ãĥ³ãĥıãĥ³": 6639,
      "ãĢĨ": 6640,
      "ãĤĴãĤĤ": 6641,
      "éģĤ": 6642,
      "ãĥ¼ãĥ©ãĥ¼": 6643,
      "ãĥ¬ãĥ¼ãĤ·ãĥ§ãĥ³": 6644,
      "ãģłãģŀ": 6645,
      "èĩ£": 6646,
      "ãĤ°ãĥ¬": 6647,
      "è©Ĳ": 6648,
      "ãĥ»ãĥ»ãĥ»ãĥ»": 6649,
      "!âľ¨": 6650,
      "ãĤĵãĤĪ": 6651,
      "ðŁĹ": 6652,
      "Ġå¬ī": 6653,
      "åľ°åŁŁ": 6654,
      "ãģ®åº¦": 6655,
      "ãĥĬãĤ¤": 6656,
      "ãĤ¹ãĤ¿ãĤ¤ãĥ«": 6657,
      "èª¿ãģ¹ãģ¦": 6658,
      "ãĥķãĥ¬ãĥ³ãĥī": 6659,
      "Ġæķ°": 6660,
      "ĺë": 6661,
      "ãģ©ãģĨãģĦãģĨ": 6662,
      "NG": 6663,
      "ov": 6664,
      "Ġèª°": 6665,
      "è²§": 6666,
      "å¥½ãģ¿": 6667,
      "çľŁãģ£": 6668,
      "å·®ãģĹ": 6669,
      "BOX": 6670,
      "Ĥï¸ı<": 6671,
      "ç·ıçĲĨ": 6672,
      "36": 6673,
      "SD": 6674,
      "ĠåĲĮãģĺ": 6675,
      "æĻĤçĤ¹ãģ§": 6676,
      "æĤŁ": 6677,
      "ãĥĽãĥ³ãĥĪ": 6678,
      "ä¸ģå¯§": 6679,
      "ä»ķæĸ¹ãģªãģĦ": 6680,
      "ãģ®ãģŃ": 6681,
      "ãĥ¼ãĥĻ": 6682,
      "Ġ18": 6683,
      "ãģ³ãĤĬ": 6684,
      "å®¶åºŃ": 6685,
      "ãĥ©ãĤ¤ãĤº": 6686,
      "ðŁĻıðŁĻı": 6687,
      "ãģ¯ãģĦãģĳãģªãģĦ": 6688,
      "IG": 6689,
      "ãģĹãģ¦ãģĭãĤī": 6690,
      "ãĤªãĥ¼": 6691,
      "âĨĳ": 6692,
      "è¦ļãģĪ": 6693,
      "æ¡Īä»¶": 6694,
      "ĠÌģâĪĢ`)": 6695,
      "ĠæĪĳ": 6696,
      "Ġæł": 6697,
      "çĪĨçĻº": 6698,
      "å°ģ": 6699,
      "åĭķãģı": 6700,
      "ãĥĳãĤ¹": 6701,
      "ãģ¡ãĤĩãģĨãģ©": 6702,
      "ĠãģĵãĤĮãģ§": 6703,
      "ä¸ĬãģĴãģ¾ãģĻ": 6704,
      "åĩºãģ¦ãģįãģŁ": 6705,
      "ãģĦãĤįãĤĵãģª": 6706,
      "Ġ`": 6707,
      "æĹ¥ãģ§": 6708,
      "è²¨": 6709,
      "ãģ£ãģ¦ãĤĭãģĭãĤī": 6710,
      "æ¼¢": 6711,
      "ðŁ«ł": 6712,
      "¨ĺ": 6713,
      "!!ãĢį": 6714,
      "ãĤ²ãĥ¼ãĥŁãĥ³ãĤ°": 6715,
      "åĭĿè²ł": 6716,
      "çµĮåĸ¶": 6717,
      "Ġti": 6718,
      "Ġãģ¾ãģļ": 6719,
      "ãģªãĤĵãģłãģĭ": 6720,
      "ðĵı¸": 6721,
      "ãģ®ãĥĦãĤ¤ãĥ¼ãĥĪ": 6722,
      "ãĤĭãģ®ãģ§": 6723,
      "ãģĳãĤĭãģ¨": 6724,
      "ãģĤãĤĬãģĮãģŁãģĦ": 6725,
      "æĪ¦éĹĺ": 6726,
      "ãģªãĤĵãģłãĤĪãģª": 6727,
      "Yahooãĥĭãĥ¥ãĥ¼ãĤ¹": 6728,
      "æĸ¹åĲĳ": 6729,
      "ĠÌĸ": 6730,
      "ary": 6731,
      "æŀĲ": 6732,
      "ãĥİãĥª": 6733,
      "ãĤĨãģį": 6734,
      "èĦļ": 6735,
      "Ġä¸Ģç·Ĵ": 6736,
      "ãĤıãĤĵ": 6737,
      "isc": 6738,
      "çµĲæŀľãģĮ": 6739,
      "ĠãģĹãģĭãĤĤ": 6740,
      "ãģĻãģ¿ãģ¾ãģĽãĤĵ": 6741,
      "ãĥ©ãĥ«": 6742,
      "ãĤ¢ãĥĹãĥĩ": 6743,
      "ãģķãĤĵãģĬ": 6744,
      "ãĥĲãĥł": 6745,
      "æĺİãģĳ": 6746,
      "ĠãĤĨãģ£ãģıãĤĬ": 6747,
      "ãĤĴè¨ĺå¿µ": 6748,
      "ãĤ¿ãĥ«ãĥĳ": 6749,
      "ĠåıĹãģĳåıĸãģ£ãģŁãĥªãĥĹãĥ©ãĤ¤æķ°": 6750,
      "Ķï¸ı": 6751,
      "è³ĥ": 6752,
      "èŃľ": 6753,
      "ä¸ĭãĤį": 6754,
      "ãĥ¼ãĥĢãĥ¼": 6755,
      "ĠåİŁç¥ŀ": 6756,
      "éĥ½åĲĪ": 6757,
      "å¹¸ãģĦãģ§ãģĻ": 6758,
      "â¸Ŀâ¸Ŀ": 6759,
      "ãĥĳãĥ©": 6760,
      "ä¸ĸãģ®ä¸Ń": 6761,
      "(*^": 6762,
      "çªĵ": 6763,
      "(^_": 6764,
      "ãģ®åĲįåīį": 6765,
      "ãģĿãģ®å¾Į": 6766,
      "åīįãģĭãĤī": 6767,
      "ãĥ¢ãĥ¼ãĥī": 6768,
      "ãĤ¬ãĥ¼ãĥ«": 6769,
      "åħ¬æ¼Ķ": 6770,
      "ç©įãģ¿": 6771,
      "å´©å£Ĭ": 6772,
      "ä½ľæĽ²": 6773,
      "ĠâĹĨ": 6774,
      "èĻļ": 6775,
      "ãĤģãĤĵãģ©": 6776,
      "ãģĻãĤĭãģ®ãģ§": 6777,
      "ãģĦãģŁãģ®ãģ§": 6778,
      "ãģªãģĭãģ£ãģŁãĤī": 6779,
      "ãĥŀãĥ³ãĤ¬": 6780,
      "ãĢģãĢģãĢģ<": 6781,
      "ãĥªãĥĥãĥĪ": 6782,
      "ãĤ³ãĥ¼ãĥ«": 6783,
      "ãĥĨãĥ¬": 6784,
      "ĠãĤĤãģ£ãģ¨": 6785,
      "ãĤĴçĽ®æĮĩ": 6786,
      "ãģĹãģ¦ãģıãĤĭ": 6787,
      "ãģĦãģĦãģĦãģĦ": 6788,
      "çļ®": 6789,
      "ãģłãģ£ãģŁãģĭãĤī": 6790,
      "æĨ©": 6791,
      "ðŁįĢ<": 6792,
      "46": 6793,
      "çĦ¡äºĭ": 6794,
      "å®Łãģ«": 6795,
      "ãĥĵãĥ¼": 6796,
      "å¸°å®ħ": 6797,
      "Ġæľ¬æĹ¥ãĤĤ": 6798,
      "ãģĹãģĭãģ£ãģŁãģ§ãģĻ": 6799,
      "ãĤ¸ãĥ¥ãĤ¢ãĥ«": 6800,
      "(:": 6801,
      "IS": 6802,
      "ãĤīãģĻ": 6803,
      "ãĥŃãĤ´": 6804,
      "ãģĽãģĦãģ§": 6805,
      "åĩ¸": 6806,
      "ãĤ¸ãĥ³": 6807,
      "ä¸ĢåĽŀ": 6808,
      "ãĥ¤ãĥĦ": 6809,
      "ãģ¨è¨Ģãģ£ãģ¦": 6810,
      ";)<": 6811,
      "ãĢĤ#": 6812,
      "åħ¥ãģ£ãģ¦": 6813,
      "çĽ¸äºĴ": 6814,
      "åĲĳãģį": 6815,
      "ĠãģĿãģĨãģĦãģĨ": 6816,
      "ãĤ°ãĥĥãĤºãĤĦ": 6817,
      "ĠæĦĽ": 6818,
      "ðŁİµ<": 6819,
      "æī±ãģĦ": 6820,
      "ial": 6821,
      "ãģ®ãĥı": 6822,
      "ãģ¨ãģªãģ£ãģ¦": 6823,
      "çĦ¡ãģı": 6824,
      "æ²ĸç¸Ħ": 6825,
      "ä»£ãĤı": 6826,
      "ĠÌĸÌģ": 6827,
      "ãģĻãģĲãģ«": 6828,
      "ç´įå¾Ĺ": 6829,
      "ãģ¼ãģĨ": 6830,
      "'m": 6831,
      "ãģ§ãģ«": 6832,
      "ãĥīãĥ³": 6833,
      "èĪŀåı°": 6834,
      "ãĤĴæĦŁãģĺãĤĭ": 6835,
      "Ġ_)": 6836,
      "2000": 6837,
      "Apex": 6838,
      "ãģĮãģ§ãģįãĤĭ": 6839,
      "ãĤĴéģ¸": 6840,
      "Ġçķ": 6841,
      "ãĥĳãĥ¼ãĥĨãĤ£": 6842,
      "æĦŁãģĺãĤĭ": 6843,
      "ãģĿãģĨãģł": 6844,
      "åĪĿè¦ĭ": 6845,
      "èĬ±ç²ī": 6846,
      "ãģ®åĬĽ": 6847,
      "ĠãĤ¸ãĥ£": 6848,
      "ĠãģĻãģĶãģĦ": 6849,
      "ä¸¼": 6850,
      "ãģĤãģ£ãģŁãĤī": 6851,
      "éģĩ": 6852,
      "æĢĿèĢĥ": 6853,
      "ãģłãģ£ãģŁãĤĬ": 6854,
      "è¶ĬãģĹ": 6855,
      "ãģĬãģ«": 6856,
      "ãĤ¢ãĤ¤ãĤ¹": 6857,
      "è¼¸": 6858,
      "ç¢ºçİĩ": 6859,
      "æķ£æŃ©": 6860,
      "ĠãģķãģĻãģĮ": 6861,
      "éįµ": 6862,
      "å¬¢": 6863,
      "ãģķãĤĵãģĭãĤī": 6864,
      "å®Łçı¾": 6865,
      "èŃ°è«ĸ": 6866,
      "ãĤĴä½ľãģ£ãģ¦": 6867,
      "å¤±ç¤¼ãģĹãģ¾ãģĻ": 6868,
      "Ġæ¨": 6869,
      "ãĤ»ãĥ³ãĤ¹": 6870,
      "ãģ®ãģĭãĤĤãģĹ": 6871,
      "ãģ®å¿ľ": 6872,
      "per": 6873,
      "ãģ®æ¬": 6874,
      "åĲĮå£«": 6875,
      "åĪ¥ãģ®": 6876,
      "ãĥĹãĥªãĥ³": 6877,
      "ĠÌĸÌģ-": 6878,
      "nt": 6879,
      "ãĤ¢ãĥĽ": 6880,
      "ĠåĦª": 6881,
      "æ®´": 6882,
      "ãģªãģ®ãģĭãģª": 6883,
      "âĸł": 6884,
      "åĨįçı¾": 6885,
      "çµ±ä¸ĢæķĻä¼ļ": 6886,
      "ê°": 6887,
      "ãģ¿ãĤĪãģĨ": 6888,
      "æıº": 6889,
      "ä½ĵãģ®": 6890,
      "ĠãĤıãģŁãģĹ": 6891,
      "Ġabout": 6892,
      "ãĤĴéĸĭåĤ¬": 6893,
      "ãĤĴåıĹãģĳ": 6894,
      "Ġæ®ĭ": 6895,
      "ãģªãĤĵãģ§ãģĻãģĭ": 6896,
      "ðŁ¤©": 6897,
      "ç«¥": 6898,
      "èĳ¬": 6899,
      "cm": 6900,
      "ãĥ¼ãģ£": 6901,
      "ãĤ³ãĥĶ": 6902,
      "ãģĺãģ¦": 6903,
      "ãģĤãģĤãģĤ": 6904,
      "æ©Łéĸ¢": 6905,
      "ĠãĥķãĤ©ãĥŃãĥ¯ãĥ¼": 6906,
      "Ġãģ©ãģĵ": 6907,
      "ãģĬãģĺãģķãĤĵ": 6908,
      "ãģ®å¥": 6909,
      "ãģĦãģĦãģ§ãģĻãģŃ": 6910,
      "çĦ¦": 6911,
      "æīĭãģĮ": 6912,
      "æĿ¥éĢ±": 6913,
      "ãĥıãĥ©": 6914,
      "ç¬ĳãģĦ": 6915,
      "ĠãģĵãĤĮãģĭãĤī": 6916,
      "æİ¥ç¨®": 6917,
      "åĮ»çĻĤ": 6918,
      "MO": 6919,
      "ãģ£ãģ¦è©±": 6920,
      "ãģ¡ãģĦ": 6921,
      "ãģĹãģ¦ãģıãģłãģķ": 6922,
      "ĠSh": 6923,
      "Ġ30": 6924,
      "åĪ¶åº¦": 6925,
      "å°İåħ¥": 6926,
      "ĠæĹ©": 6927,
      "ãģĮçĦ¡ãģĦ": 6928,
      "ãģķãģ¦": 6929,
      "ãģķãĤĴ": 6930,
      "å¤§ãģª": 6931,
      "å¹ħ": 6932,
      "åĨħãģ®": 6933,
      "èµ·åĭķ": 6934,
      "çĽ´æİ¥": 6935,
      "Ðµ": 6936,
      "ass": 6937,
      "æĶ¿æ¨©": 6938,
      "áĦĩ": 6939,
      "Ġä»ĬéĢ±ãĤĤ": 6940,
      "ãģĦãģĳ": 6941,
      "ãģĭãģ©ãģĨãģĭ": 6942,
      "æ¬º": 6943,
      "è£ħåĤĻ": 6944,
      "ãĤĴæĮģãģ¤": 6945,
      "ews": 6946,
      "æ¯İåĽŀ": 6947,
      "ĠãĤ·ãĥ£": 6948,
      "ãģĶãĤģãĤĵãģªãģķãģĦ": 6949,
      "ãģ¶ãģ£": 6950,
      "èĤĮ": 6951,
      "ãģįãģªãĤĬ": 6952,
      "ãĥ¼ãĥĸãĥ«": 6953,
      "ðŁĳıðŁĳı": 6954,
      "ãģĳãģ¾ãģĹãģ¦ãģĬãĤģãģ§ãģ¨ãģĨãģĶãģĸãģĦãģ¾ãģĻ": 6955,
      "!!!!!!!": 6956,
      "ãĥ©ãĤ¤ãĥķ": 6957,
      "ä»ĬåĽŀãģ®": 6958,
      "Ġåħ¥": 6959,
      "åĽŀå¾©": 6960,
      "è«ĸæĸĩ": 6961,
      "(_": 6962,
      "pt": 6963,
      "ãĤĵãĤĵ": 6964,
      "ãĤĴæ¸": 6965,
      "Ġwill": 6966,
      "ä¹ħãģĹãģ¶ãĤĬ": 6967,
      "èŀį": 6968,
      "ire": 6969,
      "ãģĵãģĦãģ¤": 6970,
      "ãģªãģĦãģĹ": 6971,
      "åĪĥ": 6972,
      "åĮħ": 6973,
      "ender": 6974,
      "Ġå°ĳãģĹ": 6975,
      "ãģĦãģĳãĤĭ": 6976,
      "ãģĨãĤı": 6977,
      "ä¸Ģå¹´": 6978,
      "ãĥģãĥ¼ãĤº": 6979,
      "ãĤĴæµ": 6980,
      "èī²ãģ®": 6981,
      "ãģĮãģĤãĤĬãģ¾ãģĹãģŁ": 6982,
      "ĠãĤ¢ãĥĭãĥ¡": 6983,
      "SV": 6984,
      "TO": 6985,
      "Ġen": 6986,
      "ĬĶ": 6987,
      "ãģ®ãĥĿ": 6988,
      "æľĢæĤª": 6989,
      "æ®¿": 6990,
      "ç©ºéĸĵ": 6991,
      "çĴ§": 6992,
      "ãĥ¼ãģ¡ãĤĥãĤĵ": 6993,
      "å¹»": 6994,
      "(*^^": 6995,
      "åħĥæ°Ĺãģ«": 6996,
      "åĬĩåł´": 6997,
      "ê³": 6998,
      "ãģĵãģ¨ãģĮãģĤãĤĭ": 6999,
      "åı°æ¹¾": 7000,
      "ĠåĪĿãĤģãģ¾ãģĹãģ¦": 7001,
      "ãģ®ãĥ¡ãĥĥãĤ»ãĥ¼ãĤ¸": 7002,
      "æ¢°": 7003,
      "pm": 7004,
      "ãģ¨ãĤĭ": 7005,
      "ðŁª": 7006,
      "ãĤ·ãĥĬ": 7007,
      "çī©ãģĮ": 7008,
      "ìļ": 7009,
      "ĠZ": 7010,
      "ãģ®åĢ": 7011,
      "è²¯": 7012,
      "åĸ«": 7013,
      "reat": 7014,
      "æ¡ĥ": 7015,
      "éĢĶä¸Ń": 7016,
      "ãĤ°ãĥĥãĤºãĤĦAmazonãĤ®ãĥķãĥĪ": 7017,
      "ChatGPT": 7018,
      "oy": 7019,
      "ãĤĴãģĹãģ¦ãģĦãĤĭ": 7020,
      "ãĥ»)<": 7021,
      "ãĥĲãĤ¤ãĤ¹": 7022,
      "ãĥĲãĤ¤ãĤ¯": 7023,
      "åĳª": 7024,
      "ãĥ¢ãĥ³ãĤ¹ãĤ¿ãĥ¼": 7025,
      "ãĤĦãģ£ãģ¦ãģŁ": 7026,
      "çĮ®": 7027,
      "æįĹ": 7028,
      "ç°¡åįĺãģ«": 7029,
      "ãģķãģĻãģĮãģ«": 7030,
      "ãģĪãĤīãģĦ": 7031,
      "ãĥŃãĥĬ": 7032,
      "Ġåİ": 7033,
      "ãĥķãĥªãĥ¼": 7034,
      "ãģĦãģ¤ãģĭ": 7035,
      "æ¨¹": 7036,
      "ãģŁãĤģãģ®": 7037,
      "ãģ®ä¸ŃãģĭãĤī": 7038,
      "é¬±": 7039,
      "LGBT": 7040,
      "UP": 7041,
      "oin": 7042,
      "ãģĹãģ¡ãĤĥãģ£ãģŁ": 7043,
      "è¡ĿæĴĥ": 7044,
      "ðŁĸ": 7045,
      "ãģĻãĤĭãģĭãĤī": 7046,
      "éłħ": 7047,
      "ãĥĩãĥ¼": 7048,
      "ãĥĳãĤ½ãĤ³ãĥ³": 7049,
      "ãģķãĤĮãģ¦ãģĦãģ¾ãģĻ": 7050,
      "å®ĮçĴ§": 7051,
      "åĢĻè£ľ": 7052,
      "ãĤ¢ãĥ¼ãĤ«ãĤ¤ãĥĸ": 7053,
      "ãģĭãĤĬãģ¾ãģĻ": 7054,
      "ãģ£ãģ¦ãģª": 7055,
      "ãĥŃãĥľãĥĥãĥĪ": 7056,
      "å²¸çĶ°": 7057,
      "ĠçĮ«": 7058,
      "oll": 7059,
      "phone": 7060,
      "éĳ": 7061,
      "Ġãĥļ": 7062,
      "ãĥ¡ãĤ¤ãĤ¯": 7063,
      "åī¯": 7064,
      "æĶ¹ãĤģãģ¦": 7065,
      "iPhone": 7066,
      "ãĤ³ãĥ³ãĥĵãĥĭ": 7067,
      "å¾¡åº§ãģĦãģ¾ãģĻ": 7068,
      "hy": 7069,
      "ĠãĤ´": 7070,
      "ĠèĩªåĪĨãģ®": 7071,
      "ãĥ¼ãĤ¤": 7072,
      "ãĤĪãģĨãģ§": 7073,
      "ãĤ¤ãĥ¤ãĥ¼": 7074,
      "åĳ¨å¹´è¨ĺå¿µ": 7075,
      "ÑĤ": 7076,
      "ãģłãģ¨æĢĿãģ£ãģ¦": 7077,
      "ãĥĪãĥ¼ãĤ¯": 7078,
      "çī¹å®ļ": 7079,
      "åħ±æľī": 7080,
      "ãĤĴæ±º": 7081,
      "â£": 7082,
      "ç¶ļãģı": 7083,
      "å¾ħãģ£ãģ¦ãģ¾ãģĻ": 7084,
      "æııãģı": 7085,
      "ãĤŃãĥ¥ãĤ¢": 7086,
      "Ġéłĳå¼µãģ£ãģ¦": 7087,
      "ãĤĦãģĭãģª": 7088,
      "ãģ¤ãģ¾ãĤĬ": 7089,
      "å¹´é½¢": 7090,
      "ãĤ¹ãĥĪãĤ¢": 7091,
      "é£ŁãģĦ": 7092,
      "ãĥķãĤ¡ãĤ¤ãĥ«": 7093,
      "ãģ£ãģ£ãģ£ãģ£": 7094,
      "ãģ®æ¸": 7095,
      "ãģĭãģªãģĭãģ£ãģŁ": 7096,
      "ä¸ĭè¨ĺ": 7097,
      "çī©çĲĨ": 7098,
      "ãģĹãģ¦ãĤĭãģĭãĤī": 7099,
      "é¢¨éĤª": 7100,
      "åĭĿåĪ©": 7101,
      "ãĥ¼ãĥĵãĤ£": 7102,
      "///": 7103,
      "æıļãģĴ": 7104,
      "Sh": 7105,
      "ni": 7106,
      "ãģĮãģį": 7107,
      "ãģĤãģĦ": 7108,
      "ãĥĥãĤ¸": 7109,
      "çī¹åħ¸": 7110,
      "âĻ¡âĻ¡": 7111,
      "ðŁ¥°ðŁ¥°": 7112,
      "æį¨ãģ¦": 7113,
      "la": 7114,
      "Ġç¤": 7115,
      "è¦ĭãģĽ": 7116,
      "ãģªãĤĵãģ§ãģĻãĤĪãģŃ": 7117,
      "åºĬ": 7118,
      "æīĭãģ®": 7119,
      "Ġæ°Ĺ": 7120,
      "Ġãģ¡ãĤĥãĤĵãģ¨": 7121,
      "ãĤĴåıĸãĤĬ": 7122,
      "ãģ£ãģ¦ãģŁãĤī": 7123,
      "ãģĦãģıãĤī": 7124,
      "ãĤĪãģĭãģ£ãģŁãĤī": 7125,
      "âĩ": 7126,
      "ãģĬãģĺ": 7127,
      "ãĤªãĥ«": 7128,
      "æĢ§èĥ½": 7129,
      "ðŁĺĮ<": 7130,
      "é§Ĩãģĳ": 7131,
      "æģ¥ãģļ": 7132,
      "è©Ĳæ¬º": 7133,
      "ãĤĴçĻº": 7134,
      "......ãĢĤ<": 7135,
      "å¿ĥãģĮ": 7136,
      "åĦªç§Ģ": 7137,
      "ãĤĴæĬ½éģ¸ãģ§": 7138,
      "æĤ²ãģĹãģĦ": 7139,
      "EV": 7140,
      "ãģ§ãģĻãģĹ": 7141,
      "éĩİèıľ": 7142,
      "ãĤģãģ¡ãĤĥãĤģãģ¡ãĤĥ": 7143,
      "ãĥ³ãĥĩãĥ¬": 7144,
      "ĠåĪĿãĤģãģ¦": 7145,
      "åĪĨãģĭãĤīãĤĵ": 7146,
      "ĠãģĤãģ£": 7147,
      "èĢĥãģĪãģŁ": 7148,
      "å¸°ãĤĬ": 7149,
      "è¦³ãģ¦": 7150,
      "çħ®": 7151,
      "Ġå½ĵéģ¸": 7152,
      "«éľ²": 7153,
      "ĠãĤĢ": 7154,
      "ĠÃĹ": 7155,
      "Ġall": 7156,
      "ãģĦãģĭãĤī": 7157,
      "ãĤĮãģĦ": 7158,
      "ä¹Ł": 7159,
      "æ´»èºį": 7160,
      "ows": 7161,
      "æľªãģł": 7162,
      "è¡ĮãģĵãģĨ": 7163,
      "Ġ24": 7164,
      "ãĥĶãĤ«": 7165,
      "ãĤĨãģĨ": 7166,
      "éłĤãģį": 7167,
      "ĠãĤıãģĭãĤĭ": 7168,
      "ãĤĴä½¿ãģĨ": 7169,
      "Ġæµģ": 7170,
      "æİ²è¼ī": 7171,
      "ãģ®ãĥ¬": 7172,
      "ãģĬçµµæııãģį": 7173,
      "è¦³åħī": 7174,
      "booth": 7175,
      "ãģ¾ãģĪ": 7176,
      "ãĤ¤ãĥģ": 7177,
      "çľĭ": 7178,
      "ans": 7179,
      "ãģŁãģıãģªãģĦ": 7180,
      "ãĥ¼ãĥĵãĥ¼": 7181,
      "èī¦ãģĵãĤĮ": 7182,
      "åħħéĽ»": 7183,
      "ĠãĤŃãĥ£ãĥ³ãĥļãĥ¼ãĥ³": 7184,
      "ãģĮé«ĺ": 7185,
      "æľĢå°ı": 7186,
      "åĵĢ": 7187,
      "æ°´çĿĢ": 7188,
      "å¤īãĤıãĤīãģļ": 7189,
      "ãĤīãĤĮãģ¦ãĤĭ": 7190,
      "ãĤĴæĮģãģ£ãģ¦": 7191,
      "(âģł": 7192,
      "No": 7193,
      "ĠãģĤãĤĬãģĮãģ¨ãģĨãģĶãģĸãģĦãģ¾ãģĹãģŁ": 7194,
      "è©±ãģĹ": 7195,
      "å¼·åĮĸ": 7196,
      "éłĳå¼µãĤįãģĨ": 7197,
      "æ³£ãģį": 7198,
      "ãģĭãģĪãĤĬ": 7199,
      "ä½ķåĽŀ": 7200,
      "æ¶²": 7201,
      "ãĤ¢ãĥ«ãĥĲãĥł": 7202,
      "Ġå¼·": 7203,
      "HP": 7204,
      "ºĸ": 7205,
      "æĹ¥æľ¬äºº": 7206,
      "ãĥ©ãĤ¤ãĥī": 7207,
      "è±ļ": 7208,
      "!ãĢı": 7209,
      "ãĥ³ãĤ«": 7210,
      "å«ģ": 7211,
      "ea": 7212,
      "Ġ>": 7213,
      "ãģ¾ãģ«": 7214,
      "Ġãĥ¨": 7215,
      "ä¼ĳãĤĵãģ§": 7216,
      "ãĢľãĢľãĢľ": 7217,
      "ãĥĹãĥ©ãĤ¹": 7218,
      "æĬľãģĳ": 7219,
      "è¨¼æĺİ": 7220,
      "âĢķâĢķ": 7221,
      "48": 7222,
      "CD": 7223,
      "ug": 7224,
      "æĹ¨": 7225,
      "å§ĭãĤģãĤĭ": 7226,
      "å£°ãģĮ": 7227,
      "Ġä»ĬæĹ¥ãĤĤä¸ĢæĹ¥": 7228,
      "ãĥ©ãĥ³ãĤŃãĥ³ãĤ°": 7229,
      "ËĬáĹľ": 7230,
      "ãģ®åģ": 7231,
      "ãĥľãĥ¼ãĥ«": 7232,
      "æĢ§ãĤĴ": 7233,
      "ðŁĳĩ": 7234,
      "Ġæĺİ": 7235,
      "çĽ¸å½ĵ": 7236,
      "ĠãĤªãĥª": 7237,
      "ËĬáĹľËĭ": 7238,
      "Ch": 7239,
      "æľĹ": 7240,
      "ãĥªãĥķ": 7241,
      "!!!!!!<": 7242,
      "ãĥĢãĥ³ãĤ¹": 7243,
      "å¾ħæ©Ł": 7244,
      "åĦĦåĨĨ": 7245,
      "áĦı": 7246,
      "ãĤĭãģª": 7247,
      "ãģ¯ãģ¯": 7248,
      "ãĤ¢ãĥŀ": 7249,
      "ãģ®æĭ": 7250,
      "ãĤĵãģłãĤī": 7251,
      "ãģ¨æĢĿãģ£ãģ¦ãģŁ": 7252,
      "åĽŀçŃĶ": 7253,
      "ãĥľãĤ¤ãĤ¹": 7254,
      "æīĢãģ«": 7255,
      "æº¶": 7256,
      "ðŁĴª<": 7257,
      "ĠÌģâĪĢ`*)": 7258,
      "ãĤ«ãĤ¹ãĤ¿ãĥł": 7259,
      "?)<": 7260,
      "uu": 7261,
      "ãģ®ä¸ĭ": 7262,
      "åľ°åħĥ": 7263,
      "55": 7264,
      "ãģ¾ãģªãģĦ": 7265,
      "ãģ¤ãģ¾": 7266,
      "ĠçĹ": 7267,
      "ãĥ¡ãĥ³ãĤ¿ãĥ«": 7268,
      "Ġ$": 7269,
      "ãģĨãĤĮãģĹãģĦ": 7270,
      "âľ¨âľ¨<": 7271,
      "ãģ£ãģ¦ãĤĭãģ®": 7272,
      "çĶ¨ãģ«": 7273,
      "å¤ªéĻ½": 7274,
      "æĩĲãģĭãģĹãģĦ": 7275,
      "å¤®": 7276,
      "æ²¼": 7277,
      "æ°ıãģĮ": 7278,
      "able": 7279,
      "Ġle": 7280,
      "ãģķãĤĵãģĬãģ¯ãĤĪãĥ¼": 7281,
      "ãĤ¸ãĤ¢": 7282,
      "Ġçľ": 7283,
      "åĤ¾": 7284,
      "ãģ®äººãģ«": 7285,
      "ä¼ĳæĨ©": 7286,
      "æĪĳæħ¢": 7287,
      "ber": 7288,
      "â¤": 7289,
      "ãĥĩãĥ¬": 7290,
      "éĩĳæĽľæĹ¥": 7291,
      "âłĢâłĢâłĢâłĢ": 7292,
      "Ġå¸°": 7293,
      "mm": 7294,
      "ìĦ": 7295,
      "Ġå¤ı": 7296,
      "ãĥ¼ãĥŁ": 7297,
      "ãĤªãĥĸ": 7298,
      "ãģĮãģĤãĤĭãģĭãĤī": 7299,
      "æĬķè³ĩ": 7300,
      "Ġãģªãģľ": 7301,
      "ING": 7302,
      "åģľæŃ¢": 7303,
      "ãģĳãĤĵ": 7304,
      "ãģĹãģ¦æ¬²ãģĹãģĦ": 7305,
      "Ġæı": 7306,
      "ãģĻãĤĭãģĵãģ¨ãģĮ": 7307,
      "åįµ": 7308,
      "éĿ´": 7309,
      "çĶ³è«ĭ": 7310,
      "ĠðŁĮŁ": 7311,
      "ĠåĲĽ": 7312,
      "ãģ®æŃĮ": 7313,
      "å¯Ĥ": 7314,
      "ãģĵãĤĵãģªæĦŁãģĺ": 7315,
      "ãģĨãģ¡ãģ®": 7316,
      "æĸ½è¨Ń": 7317,
      "ä¹ĭ": 7318,
      "èĢĥãģĪãĤĭãģ¨": 7319,
      "Ġç¤¾": 7320,
      "ı°": 7321,
      "ãģŁãģ®ãģ§": 7322,
      "ãģĭãĥ¼": 7323,
      "ãģĮèī¯ãģĦ": 7324,
      "ãĤ³ãĥ¼ãĤ¹": 7325,
      "éĽĩ": 7326,
      "ä¸Ģçŀ¬": 7327,
      "ãĥŁãĥ³ãĤ°": 7328,
      "æ±ºãģ¾": 7329,
      "ä¿ĿåŃĺ": 7330,
      "ãģĭãĤĮ": 7331,
      "æľĿæĹ¥": 7332,
      "ãģĻãĤĭãģ®ãģĮ": 7333,
      "å±Ī": 7334,
      "Ġ15": 7335,
      "ãĥĿãĥ³": 7336,
      "å§Ķåĵ¡": 7337,
      "Ġç©º": 7338,
      "her": 7339,
      "hot": 7340,
      "ãģķãģ«": 7341,
      "è¡Ĩ": 7342,
      "çŁ¢": 7343,
      "æľŁéĻĲ": 7344,
      "ç¹ĭ": 7345,
      "ðŁįĢ*": 7346,
      "MIX": 7347,
      "¾éĢģ": 7348,
      "ãģĬæĺ¼": 7349,
      "ãĤĪãĤįãģĹ": 7350,
      "ãģ®å§¿": 7351,
      "éĳĳ": 7352,
      "ãĤĦãģĭ": 7353,
      "Ġæ¼": 7354,
      "å¤§ä½ĵ": 7355,
      "ä¸Ĭãģ®": 7356,
      "ãĥīãĥŃ": 7357,
      "ä»²èī¯": 7358,
      "éŃħåĬĽ": 7359,
      "ãĤ´ãĥ¼ãĥ«ãĥĩãĥ³": 7360,
      "Ñĸ": 7361,
      "ãģķãģ£ãģį": 7362,
      "ãģ¨ãģĦãģĨãģĵãģ¨ãģ§": 7363,
      "ãĥĴãĥŃ": 7364,
      "ĠæķĻ": 7365,
      "ek": 7366,
      "ãĤĤãģµ": 7367,
      "ä¸Ģå¿ľ": 7368,
      "æ³Ĭ": 7369,
      "éĽĨåĲĪ": 7370,
      "å¢ĹãģĪãģ¦": 7371,
      "æ¤ľæŁ»": 7372,
      "apan": 7373,
      "æľīéĽ£ãģĨ": 7374,
      "ãģ®ãģ»ãģĨãģĮ": 7375,
      "ãģĭãģį": 7376,
      "Ġæĺ¥": 7377,
      "éĢ£ãĤĮãģ¦": 7378,
      "å¹³åĴĮ": 7379,
      "ãĤ·ãĥ¼ãĤºãĥ³": 7380,
      "ãĥ¼ãĥĥ": 7381,
      "ãĤ³ãĥ³ãĥĪ": 7382,
      "ãĥĵãĥ¼ãĥ«": 7383,
      "ĠãģĤãĤī": 7384,
      "ç¾İãģĹãģĦ": 7385,
      "éĺ²è¡Ľ": 7386,
      "AW": 7387,
      "ĠèŃ²": 7388,
      "ãģ¨æĢĿãģ£ãģŁãģĳãģ©": 7389,
      "lus": 7390,
      "ãģ®é«ĺ": 7391,
      "ãģ£ãģ¦ãģ¾ãģĹãģŁ": 7392,
      "ãĢľ!!": 7393,
      "çľŁéĿ¢": 7394,
      "éģĶãģĮ": 7395,
      "å¸ĥåĽ£": 7396,
      "ãģ«ãģĵ": 7397,
      "ãģ¨åĲĮ": 7398,
      "å¾ĮãĤį": 7399,
      "å¼·ãģı": 7400,
      "Ġsp": 7401,
      "å¢ĹãģĪãĤĭ": 7402,
      "æİ¡çĶ¨": 7403,
      "ãĤŀ": 7404,
      "ãģ®åĲį": 7405,
      "ãĤĴéĢļ": 7406,
      "ãĤ³ãĥĦ": 7407,
      "ĠãģĬãģĦ": 7408,
      "ãģ®æ¥½": 7409,
      "æľĢä½İ": 7410,
      "ãĥıãĥı": 7411,
      "Ġhas": 7412,
      "£®": 7413,
      "ãģ£ãģ¦ãģªãĤĭ": 7414,
      "ãģªãĤĵãĤĦ": 7415,
      "ãģ¨ãģĭãģ¯": 7416,
      "ãģ¾ãģ§ãģĤãģ¨": 7417,
      "ãģ£ãģĭãģı": 7418,
      "ãģĽãģļãģ«": 7419,
      "ðŁĮ¼": 7420,
      "çİĦ": 7421,
      "ãĢģãĢģ<": 7422,
      "ãģ«ãģĬãģĦãģ¦": 7423,
      "ãģ¨ãģ®ãģĵãģ¨": 7424,
      "çķ°å¸¸": 7425,
      "ãģ«ãģªãĤĬãģĿãģĨ": 7426,
      "ãģĮåĩºãĤĭ": 7427,
      "ãĥ¼ãĥįãĥĥãĥĪ": 7428,
      "èĩ¨": 7429,
      "ãĥľãĤ¿ãĥ³": 7430,
      "ãĤ¶ãĥ¼": 7431,
      "ä¿ºãģĮ": 7432,
      "Ġèµ¤": 7433,
      "Ģï¸ı<": 7434,
      "è©±ãģĮ": 7435,
      "å¥ĳ": 7436,
      "ðŁĻĨ": 7437,
      "ãģŀãĥ¼": 7438,
      "æĽ²ãĤĴ": 7439,
      "ðŁİ¶<": 7440,
      "ãģ¬ãģĦãģĲãĤĭãģ¿": 7441,
      "af": 7442,
      "ĠãĤ½": 7443,
      "Ġä¸ŃåĽ½": 7444,
      "ãģ§ãģĻãģĳãģ©": 7445,
      "ãģķãĤĵãģĤãĤĬãģĮãģ¨ãģĨãģĶãģĸãģĦãģ¾ãģĻ": 7446,
      "ãģªãĤĵãģ§ãĤĤ": 7447,
      "éĽĨä¸Ń": 7448,
      "ãģĿãģ®åł´ãģ§å½ĵãģŁãĤĭ": 7449,
      "ãģ¤ãģĦãģŁ": 7450,
      "Ġãģ¤ãģĦãģ«": 7451,
      "ĠãĤļ<": 7452,
      "ãģ¿ãģĮ": 7453,
      "ãĤıãģŃ": 7454,
      "Ġç§ģãģ®": 7455,
      "usic": 7456,
      "ãģ®ãģłãģĮ": 7457,
      "åĶ±": 7458,
      "ãĤ³ãĥ³ãĥĨãĥ³ãĥĦ": 7459,
      "port": 7460,
      "Ġèī²ãĢħ": 7461,
      "ãģıãģĿ": 7462,
      "ðŁĺ´": 7463,
      "è¦ĭãĤĭãģ¨": 7464,
      "ãģ«ãģªãĤĮãĤĭ": 7465,
      "ãģ¡ãĤĥãĤĵãģĬãģ¯": 7466,
      "å¼·åĪ¶": 7467,
      "æľŁéĸĵéĻĲå®ļ": 7468,
      "ãģĬçĸ²ãĤĮæ§ĺãģ§ãģĻ": 7469,
      "ãĥĵãĤ¸ãĥįãĤ¹": 7470,
      "(âī§": 7471,
      "ãĤ«ãĥª": 7472,
      "ãģıãĤĮãģ¦ãģĤãĤĬãģĮãģ¨ãģĨ": 7473,
      "èª²éĩĳ": 7474,
      "ãģ«åĲĳãģĳãģ¦": 7475,
      "Ĵ®å½±": 7476,
      "ãĤĴæĬķç¨¿ãģĹãģ¾ãģĹãģŁ": 7477,
      "Tok": 7478,
      "YO": 7479,
      "åĭ§": 7480,
      "ãĥ¢ãĥ³ãĥıãĥ³": 7481,
      "ãĤ®ãĤ¢": 7482,
      "ous": 7483,
      "è¿ĳãģ¥": 7484,
      "ãģĿãģĵãģ¾ãģ§": 7485,
      "å®ĹæķĻ": 7486,
      "ĠãĤģ": 7487,
      "çĶŁãģ®": 7488,
      "2020": 7489,
      "ãģ¸ãĤĵ": 7490,
      "ãĤĤãģ®ãģ®": 7491,
      "èª¿åŃĲ": 7492,
      "Ġãģ©ãĤĵãģª": 7493,
      "æĪĳãģĮ": 7494,
      "åİ³ãģĹãģĦ": 7495,
      "Ġå®Ł": 7496,
      "ãģ«å¤ī": 7497,
      "ãģĤãĤĭãģĭãĤī": 7498,
      "èĤ²ãģ¦": 7499,
      "åģīãģĦ": 7500,
      "åĢŁãĤĬ": 7501,
      "ile": 7502,
      "~!<": 7503,
      "ãĤĭãģĦ": 7504,
      "ãģĮçĻ»åł´": 7505,
      "ãģªãĤĵãģ§ãģĻãģĮ": 7506,
      "ãģ®æ´»": 7507,
      "......(": 7508,
      "å®¶ãģ§": 7509,
      "Ġæĺł": 7510,
      "åĨĨåĪĨãģĮ": 7511,
      "ãģ¯ãĤĪ": 7512,
      "ãģ®ãģĭãĤĤ": 7513,
      "ĠâĹľ": 7514,
      "ade": 7515,
      "(^^)": 7516,
      "æ¥½ãģĹãģ¿ãģ«ãģĹãģ¦": 7517,
      "ãģ¿ãģªãģķãģ¾": 7518,
      "çĶŁãģįãĤĭ": 7519,
      "ãĤ«ãĥŃ": 7520,
      "ãģĤãĤĭãģĤãĤĭ": 7521,
      "åģ½": 7522,
      "çµĤãĤıãģ£ãģ¦": 7523,
      "ĠPro": 7524,
      "çµ¦æĸĻ": 7525,
      "ãĤ«ãĥ©ãĤªãĤ±": 7526,
      "ãĢįãĢĤ": 7527,
      "atch": 7528,
      "è¨Ńè¨Ī": 7529,
      "ãģĥãģĥ": 7530,
      "Google": 7531,
      "ãĤ¹ãĤ³": 7532,
      "ãĤ«ãĥĥãĥĪ": 7533,
      "éĩĿ": 7534,
      "ãĥĳãĥ¯ãĥ¼": 7535,
      "ãģ¨æĢĿãģĨãģĳãģ©": 7536,
      "Ġæľ¬æĹ¥ãģ¯": 7537,
      "ãģ®åĳ³": 7538,
      "ºĢ": 7539,
      "ont": 7540,
      "ãģŁãĤĭ": 7541,
      "ãĤ«ãĥĲãĥ¼": 7542,
      "æ¥ŃçķĮ": 7543,
      "ãģ®äººéĸĵ": 7544,
      "åĥķãģ®": 7545,
      "èĻĲ": 7546,
      "32": 7547,
      "ħå½ĵ": 7548,
      "çķªåı·": 7549,
      "ãģĹãģ¦ãģıãĤĮãģ¦": 7550,
      "ãĤ¸ãĥ¥ãĥ¼ãĥ«": 7551,
      "ãĤ¹ãĥĿãĥ¼ãĥĦ": 7552,
      "ãģ¾ãģĻãģĮ": 7553,
      "èĲĮ": 7554,
      "æĦıå¤ĸãģ¨": 7555,
      "der": 7556,
      "è¨Ģãģ£ãģŁ": 7557,
      "ãģ®æ±": 7558,
      "èī¯ãģıãģªãģĦ": 7559,
      "ĠãģĿãģ®åł´ãģ§å½ĵãģŁãĤĭ": 7560,
      "ick": 7561,
      "æ¬¡ãģ®": 7562,
      "ĠRe": 7563,
      "ĠãģķãĤīãģ«": 7564,
      "IP": 7565,
      "ãģ¾ãģ§ãĤĤ": 7566,
      "ãĥªãĤ¹ãĤ¯": 7567,
      "çĽ®ãģ§": 7568,
      "âģł)": 7569,
      "ãģ®åīįãģ«": 7570,
      "ãģĬãģĭ": 7571,
      "ĠçĪ": 7572,
      "ĠãģĬãģ¯ãģĤãĤĬ": 7573,
      "ãģ£ãģ¦ãĤĭãģĳãģ©": 7574,
      "ance": 7575,
      "é£Łäºĭ": 7576,
      "èĩĵ": 7577,
      "æĸ¹ãģ§": 7578,
      "äººãģĮãģĦãĤĭ": 7579,
      "å¥ĳç´Ħ": 7580,
      "3000": 7581,
      "ãģĦãģ¡ãĤĥ": 7582,
      "ðŁĴĽ": 7583,
      "ãģ§ãģĹãģŁãģĮ": 7584,
      "æĽ´ãģ«": 7585,
      "ãĤīãĤĮãģ¦ãģĦãĤĭ": 7586,
      "æ³¨æĸĩ": 7587,
      "ðŁ¦ĭ": 7588,
      "ìĿ´": 7589,
      ".Â°": 7590,
      ">...": 7591,
      "ãģĽãĤĪ": 7592,
      "ðŁĮ±": 7593,
      "ãģªãģĭãģ£ãģŁãģĳãģ©": 7594,
      "æµģãĤĮ": 7595,
      "DL": 7596,
      "ĺåľ¨": 7597,
      "ãģŁãģĭãĤī": 7598,
      "ãĥ³ãģ§": 7599,
      "ãģ£ãģ¦ä½ķ": 7600,
      "ä¼´": 7601,
      "éĥµ": 7602,
      "Ġgo": 7603,
      "ãĤ¦ãĤ£ãĥ¼ãĤ¯": 7604,
      "ä¸Ĭæīĭãģı": 7605,
      "Ġè©³ç´°ãģ¯": 7606,
      "ĠãĥŀãĤ¸ãģ§": 7607,
      "BD": 7608,
      "ãģ®æķ°": 7609,
      "ãĤįãģ£ãģı": 7610,
      "ãĤ«ãĤ¿": 7611,
      "ãĤŃãĥ¬": 7612,
      "âĢĶ": 7613,
      "ä¸ĭãģķ": 7614,
      "ãģ£ãģĭãģĳ": 7615,
      "ĠæŃ»": 7616,
      "ĠæĺİæĹ¥ãģ¯": 7617,
      "ãģ®ãĥĦãĤ¤": 7618,
      "Ġæ¥½ãģĹãģ¿": 7619,
      "å¾ĮåįĬ": 7620,
      "ãĥ³ãĤ¿ãĤ¤ãĥ³": 7621,
      "ãģ¾ãģ¨ãĤģãģ¦": 7622,
      "!...<": 7623,
      "ĠãģĤãĤĬ": 7624,
      "ãģĬåºĹ": 7625,
      "ãĤĪãģĨãģ«ãģªãģ£ãģ¦": 7626,
      "èĩªè¡Ľ": 7627,
      "ĠAn": 7628,
      "Ġâĸ½": 7629,
      "âĳ": 7630,
      "èľ": 7631,
      "ãģłãĥ¼": 7632,
      "æĹ¥ãĤĴ": 7633,
      "ãģ¿ãĤĵ": 7634,
      "Ġç±": 7635,
      "åĨĴ": 7636,
      "ãģ®æļ": 7637,
      "ãģ¨æĢĿãģĦãģ¾ãģĹãģŁ": 7638,
      "ãģĭãģªãĥ¼": 7639,
      "ãģªãģıãģ¨ãĤĤ": 7640,
      "ãĥĽãĥ¯ãĤ¤ãĥĪ": 7641,
      "èī²ç´Ļ": 7642,
      "âĪł": 7643,
      "ãģ®æĸ¹ãģ«": 7644,
      "æĺ¨æĹ¥ãģ®": 7645,
      "IM": 7646,
      "ãģ¨ãģĹãģŁãĤī": 7647,
      "æĹ¥ãģ¾ãģ§": 7648,
      "ãĥŀãĥ¼ãĤ¯": 7649,
      "åįĬåĪĨ": 7650,
      "ä¾ĭãģĪãģ°": 7651,
      "å°»": 7652,
      "åĮ¹": 7653,
      "æĬ½éģ¸": 7654,
      "ãĤ®ãĥ¼": 7655,
      "å¼µãĤĬ": 7656,
      "å¿ĥãģ«": 7657,
      "é§Ĳ": 7658,
      "âĿ£ï¸ı<": 7659,
      "ç·łãĤģ": 7660,
      "plat": 7661,
      "åģı": 7662,
      "åºĹèĪĹ": 7663,
      "37": 7664,
      "ãĤ¹ãĥĨãĤ£": 7665,
      "äººãģŁãģ¡": 7666,
      "ãģĹãģ¦ãĤĭãģ®": 7667,
      "ĠTH": 7668,
      "ual": 7669,
      "ãĤŃãĥŃ": 7670,
      "çĦ¡ãģĭãģ£ãģŁ": 7671,
      "ĠãĤĦãģ¯ãĤĬ": 7672,
      "è¿ĶãģĹ": 7673,
      "ãĤĤãĤĵãģŃ": 7674,
      "IK": 7675,
      "ìĭ": 7676,
      "ĠãĤ±": 7677,
      "ãĤ³ãĥ¡": 7678,
      "ãģ¡ãĤĥãĤĵãĤĤ": 7679,
      "ãĥİãĥ¼ãĥĪ": 7680,
      "çµ±éłĺ": 7681,
      "æĢ§çĻĸ": 7682,
      "å¾Įãģ¯": 7683,
      "éłĳå¼µãĤĬãģ¾ãģĹãĤĩãģĨ": 7684,
      "æº¢": 7685,
      "âĹĭâĹĭâĹĭâĹĭ": 7686,
      "è¶³ãĤĬãģªãģĦ": 7687,
      "km": 7688,
      "ãģĬçĸ²ãĤĮ": 7689,
      "æĸ°è¦ı": 7690,
      "ãĥ¢ãĥª": 7691,
      "åľ°çĲĥ": 7692,
      "éľĢ": 7693,
      "æ¸©æ³ī": 7694,
      "ĠThis": 7695,
      "à½": 7696,
      "éĪ´": 7697,
      "ãģ°ãģ£ãģĭãĤĬ": 7698,
      "ãĤ¤ãĥł": 7699,
      "æĹ¥æľ¬ãģ¯": 7700,
      "å¾ħãģ£ãģ¦": 7701,
      "ĠWe": 7702,
      "keb": 7703,
      "ãģ¾ãģķãģĭ": 7704,
      "æļ®ãĤīãģĹ": 7705,
      "çĳ": 7706,
      "ãģĮå¤§": 7707,
      "è¨ĢãĤıãĤĮãģŁ": 7708,
      "Ġtr": 7709,
      "æµ´": 7710,
      "ãĥķãĤ©ãĥ¼ãĥł": 7711,
      "ãĥĶãĤ¢ãĥİ": 7712,
      "ãģ«ãģĹãģĭ": 7713,
      "Ġåĸ": 7714,
      "åĩºä¼ļ": 7715,
      "æĪĴ": 7716,
      "ç¿¼": 7717,
      "ãģĵãģĵãģ§": 7718,
      "ãģĨãģ¾ãģĦ": 7719,
      "æľĢçµĤæĹ¥": 7720,
      "ĠæŁ": 7721,
      "å¤§èĩ£": 7722,
      "åĭķãģĭ": 7723,
      "äºĮæ¬¡": 7724,
      "è»¢è»Ĭ": 7725,
      "ãģ®æĮĩ": 7726,
      "ä½ķåº¦ãĤĤ": 7727,
      "êľĨ": 7728,
      "BGM": 7729,
      "ãĤ¤ãĥĳ": 7730,
      "ãĥŁãĤµ": 7731,
      "ãĥŁãĥĥãĤ¯": 7732,
      "ãĥĬãĥ³": 7733,
      "æĬµ": 7734,
      "ãģĿãĤĮãģ§ãĤĤ": 7735,
      "æĤ£": 7736,
      "åıĹé¨ĵ": 7737,
      "Ġ)â¸Ŀ": 7738,
      "æ°Ĺè»½ãģ«": 7739,
      "æ¾¤": 7740,
      ";&": 7741,
      "ãĤĴéĢģ": 7742,
      "Ġçĭ": 7743,
      "âĥ£<": 7744,
      "äººäººäººäºº": 7745,
      "Ġç±³": 7746,
      "OO": 7747,
      "ãĤĪãģĨãģ«ãģªãĤĭ": 7748,
      "ãģĦãģĦãĤĪ": 7749,
      "ãĤ¨ãĥ³ãĥī": 7750,
      "æĮ¨æĭ¶": 7751,
      "çħ½": 7752,
      "æ°ĳä¸»åħļ": 7753,
      "ãģ®çµµ": 7754,
      "ãĤ³ãĥį": 7755,
      "ä¸Ģæľ¬": 7756,
      "ãĥ¡ãĥ³ãĥĲ": 7757,
      "ðŁį»": 7758,
      "æĶ¾ç½®": 7759,
      "Ġ!": 7760,
      "Ħæĥ³": 7761,
      "ãģ®äºĭ": 7762,
      "ĠæĤ": 7763,
      "ä¸Ĭåı¸": 7764,
      "éŁ³å£°": 7765,
      "çĸ²ãĤĮãģŁ": 7766,
      "¿åĲįãģ®ãĥ¡ãĥĥãĤ»ãĥ¼ãĤ¸": 7767,
      "ãĤ¤ãĥ³ãĤ¿ãĥĵãĥ¥ãĥ¼": 7768,
      "æµ®ãģĭ": 7769,
      "TA": 7770,
      "ãĤ¹ãĥª": 7771,
      "å¹´åº¦": 7772,
      "ç¥ĸ": 7773,
      "ç¶ļãģĳ": 7774,
      "è²łæĭħ": 7775,
      "æĤ²åł±": 7776,
      "ðŁ¤Ĺ<": 7777,
      "ãĤ¤ãĥ³ãĤ¿ãĥ¼ãĥįãĥĥãĥĪ": 7778,
      "ãĥĨãĥ³ãĤ·ãĥ§ãĥ³": 7779,
      "è¦ĭãģŁãģĦ": 7780,
      "Ġä»Ĭãģ®": 7781,
      "Ġä»Ĭåº¦": 7782,
      "æ¯Ķè¼ĥ": 7783,
      "èĻ¹": 7784,
      "ðŁŁ¨": 7785,
      "ä»£ãĤıãĤĬãģ«": 7786,
      "5000": 7787,
      "ãģĹãģĶ": 7788,
      "ãĢģ#": 7789,
      "å¹´ä»£": 7790,
      "æŃ»äº¡": 7791,
      "ĠåĨį": 7792,
      "å¤§ãģįãģı": 7793,
      "è£ģåĪ¤": 7794,
      "ãģ¾ãĤĮãģ¦": 7795,
      "ãģĮå±Ĭ": 7796,
      "ä¼ļãģ«": 7797,
      "ãĥ¼ãĤ¸ãĥ£": 7798,
      "å¤īãĤıãģ£ãģŁ": 7799,
      "pen": 7800,
      "ðŁĻĭ": 7801,
      "Ġpr": 7802,
      "å¸°ãĤĭ": 7803,
      "ãģ½ãĤĵ": 7804,
      "ies": 7805,
      "¥µ": 7806,
      "ĠãģĺãĤĥãģĤ": 7807,
      "ãģ¤ãģ¶": 7808,
      "ãĤŃãĥª": 7809,
      "ðŁįº": 7810,
      "æĸĩåı¥": 7811,
      "ime": 7812,
      "ä¸ĬæīĭãģĦ": 7813,
      "éĬĢè¡Į": 7814,
      "æľĢãĤĤ": 7815,
      "éĸ¢è¥¿": 7816,
      "éĸ¢ä¿ĤãģªãģĦ": 7817,
      "Ġjust": 7818,
      "IL": 7819,
      "æĦļ": 7820,
      "ãģĹãģ¾ãģ£ãģ¦": 7821,
      "ðŁįĵ": 7822,
      "ãģ¨è¨ĢãĤıãĤĮãģ¦": 7823,
      "æĿ±æĸ¹": 7824,
      "åĨįéĸĭ": 7825,
      "Ġne": 7826,
      "å¯ĦãĤĬ": 7827,
      "TS": 7828,
      "®º": 7829,
      "Ġé»Ĵ": 7830,
      "çĶ°èĪİ": 7831,
      "èģ´ãģį": 7832,
      "éº¦": 7833,
      "çľłãģĦ": 7834,
      "URL": 7835,
      "âļ¡ï¸ı": 7836,
      "ãģĹãģ¾ãģĽãĤĵ": 7837,
      "ĠãĤ¢ãĥ¡": 7838,
      "ĠãģĨãĤı": 7839,
      "ĠGW": 7840,
      "ãĥĥãĤŃãĥª": 7841,
      "æĩ¸": 7842,
      "ãĤ¢ãĤ¢ãĤ¢ãĤ¢": 7843,
      "ĠåŃĲä¾Ľ": 7844,
      "Ñģ": 7845,
      "ł±": 7846,
      "ãĢĮ#": 7847,
      "Ġç¦": 7848,
      "ãģĺãĤĥãģªãģĦãģ§ãģĻãģĭ": 7849,
      "å°ıãģķãģĦ": 7850,
      "ãĤ®ãĥ¥ãĤ¢": 7851,
      "ĠåİŁç¥ŀãĤ°ãĥĥãĤºãĤĦAmazonãĤ®ãĥķãĥĪ": 7852,
      "Ġçµ¶å¯¾": 7853,
      "ãģ®å®Ł": 7854,
      "ãģ®æĦıåĳ³": 7855,
      "ãģĤãģ¨ãģ¯": 7856,
      "è¨ĢãģĪãģªãģĦ": 7857,
      "ãĥĩãĥĥãĤŃ": 7858,
      "ðŁĲ¥": 7859,
      "ãĥĶãĥĥãĤ¯": 7860,
      "ãĤ¯ãĥ©ãĤ¹": 7861,
      "åľ§åĢĴ": 7862,
      "çĥ": 7863,
      "Ġä½ľ": 7864,
      "æĹ¥è¨ĺ": 7865,
      "åı¬": 7866,
      "ãĥ¢ãĥĭ": 7867,
      "ĠæľĢä½İ": 7868,
      "æķ´çĲĨ": 7869,
      "ĠæĦı": 7870,
      "Ġä¸Ģç·Ĵãģ«": 7871,
      "platoon": 7872,
      "05": 7873,
      "ãģĹãĤĤ": 7874,
      "ãģ¨ç¹ĭãģĮãĤĬãģŁãģĦ": 7875,
      "ãĥ³ãĤĴ": 7876,
      "ðŁĴļ": 7877,
      "ays": 7878,
      "éĬŃ": 7879,
      "éīĦéģĵ": 7880,
      "é¯ĸ": 7881,
      "ãģĹãģŁãģĭãĤī": 7882,
      "æĺŃåĴĮ": 7883,
      "ãģ¸ãģ®åĮ": 7884,
      "éłĤãģĦãģŁ": 7885,
      "äº¤æµģ": 7886,
      "Ġget": 7887,
      "Ġæĺ¨æĹ¥ãģ¯": 7888,
      "Ġæ±Ĥ": 7889,
      "to": 7890,
      "èĺ": 7891,
      "Ġåħ¬å¼ı": 7892,
      "ãģĮæ¬²ãģĹãģĦ": 7893,
      "ä¼ı": 7894,
      "Ġâ¢": 7895,
      "ĠâĪ": 7896,
      "èĩªåĪĨãĤĤ": 7897,
      "çĤŃ": 7898,
      "ãĥªãĥ¼ãĤ°": 7899,
      "æĶ¾é¡Į": 7900,
      "åĩĦãģı": 7901,
      "è²·ãģĦçī©": 7902,
      "¿åĲįãģ®ãĥ¡ãĥĥãĤ»ãĥ¼ãĤ¸ãĤĴåĭŁéĽĨä¸Ń": 7903,
      "ãģ¸ãģ®åĮ¿åĲįãģ®ãĥ¡ãĥĥãĤ»ãĥ¼ãĤ¸ãĤĴåĭŁéĽĨä¸Ń": 7904,
      "ãģ§ä¸Ģ": 7905,
      "è²¸": 7906,
      "ĠðŁ¦": 7907,
      "éłĳå¼µãģ£ãģŁ": 7908,
      "ãģķãĤĮãģŁãĤī": 7909,
      "å±ĭãģķãĤĵ": 7910,
      "åĪ©çĽĬ": 7911,
      "Ġnow": 7912,
      "æļĳãģĦ": 7913,
      "ãģĬãģ¤ãģĭãĤĮ": 7914,
      "ãģĽãģĦ": 7915,
      "åĨĬ": 7916,
      "æľĪãģ¯": 7917,
      "ðŁĲ¶": 7918,
      "æ¨¡æ§ĺ": 7919,
      "ãĤ¹ãĥ¼ãĥĳãĥ¼": 7920,
      "â¸ľ(*": 7921,
      "uk": 7922,
      "ãĥ¼ãĥļ": 7923,
      "è¦ĭãģĪãģªãģĦ": 7924,
      "ãĤ±ãĥ¼ãĥĪ": 7925,
      "åĽ½éļĽ": 7926,
      "åŁ·": 7927,
      "ä»¥å¤ĸãģ®": 7928,
      "ĠåĭĿ": 7929,
      "ãģĹãģªãģįãĤĥ": 7930,
      "éģŃ": 7931,
      "æ°Ĺãģ«ãģªãģ£ãģ¦": 7932,
      "çĶŁå¾Ĵ": 7933,
      "ãĥĬãĥ³ãĤ¹": 7934,
      "ãģĹãģĭãģ«": 7935,
      "æ¥ŃåĭĻ": 7936,
      "ðŁĳĬ": 7937,
      "éģķåĴĮ": 7938,
      "ãģĵãģ®æĬķç¨¿ãĤĴ": 7939,
      "é£¼ãģĦ": 7940,
      "for": 7941,
      "è¨ĢãĤıãģªãģĦ": 7942,
      "ãģıãģªãģ£ãģ¦ãģįãģŁ": 7943,
      "ä¼ĿãĤı": 7944,
      "ãĤ¯ãĥªãĤ¨ãĤ¤": 7945,
      "ãĤªãĥªãĥĨãĤ£": 7946,
      "åĿĬ": 7947,
      "Ġå¿ľæı´": 7948,
      "mer": 7949,
      "Ġå¤ĸ": 7950,
      "ãģĬãģŃ": 7951,
      "ãĥĲãĥ¼ãĤ¸ãĥ§ãĥ³": 7952,
      "ãģµãģµ": 7953,
      "Ġìķ": 7954,
      "ĠåĨĻçľŁ": 7955,
      "Ġâĺħ": 7956,
      "çĻ¾åĲĪ": 7957,
      "Ĭç¤¾": 7958,
      "ãĤĭãģĵãģ¨": 7959,
      "ãĥ«ãĥ«": 7960,
      "ãģĦãģ¾ãģĻãģĭ": 7961,
      "æľĪãĤĤ": 7962,
      "ä¿¡çĶ¨": 7963,
      "ç¬ĳãģĨ": 7964,
      "æ¬¡åĽŀ": 7965,
      "ĠãĥĹãĥ¬ãĤ¼ãĥ³ãĥĪ": 7966,
      "Ġå¬īãģĹãģĦ": 7967,
      "ãģĻãģĵ": 7968,
      "ãģĽãģ°": 7969,
      "ç½²": 7970,
      "æ¸Īãģ¿": 7971,
      "ãģħãģħ": 7972,
      "æİĪæ¥Ń": 7973,
      "Ġå¹³åĿĩ": 7974,
      "IA": 7975,
      "uy": 7976,
      "åĪĿæľŁ": 7977,
      "ãģ²ãģ¨ãĤĬ": 7978,
      "çı¾è±¡": 7979,
      "æĶ¹åĸĦ": 7980,
      "................": 7981,
      "ãĥ¯ãĤ¯ãĥ¯ãĤ¯": 7982,
      "ãģ®å¹´": 7983,
      "Ġâ¬ľ": 7984,
      "å¹¹ç·ļ": 7985,
      "FA": 7986,
      "Ġèī¯ãģĭãģ£ãģŁ": 7987,
      "ãĤµãĥ«": 7988,
      "å¥®": 7989,
      "æĮģãģ£ãģ¦ãĤĭ": 7990,
      "éĢ£è¼ī": 7991,
      "Ġpe": 7992,
      "ãģ«ãģ¤ãģĦãģ¦ãģ¯": 7993,
      "ºĸåĤĻ": 7994,
      "Ġè¿ĳ": 7995,
      "Ġéģİåİ»": 7996,
      "ãĤŃãĥĦ": 7997,
      "æĭĿ": 7998,
      "vers": 7999,
      "01": 8000,
      "Â¥": 8001,
      "ãģ®ãģĵ": 8002,
      "ãģ¾ãģ¤": 8003,
      "ãĥ¬ãĤ¢": 8004,
      "ãĥıãĥł": 8005,
      "æİĥéĻ¤": 8006,
      "ãĤ·ãĥ§ãĥ¼": 8007,
      "çĶŁãģ¾ãĤĮ": 8008,
      "ĠéĽ¨": 8009,
      "ãģ«ãģĹãĤĪãģĨ": 8010,
      "å¹Į": 8011,
      "æµ¦": 8012,
      "ãĥĿãĥª": 8013,
      "ç«¹": 8014,
      "éģĭçĶ¨": 8015,
      "Ġâĸ¶": 8016,
      "çªģãģ£": 8017,
      "ãĥģãĥ¥ãĤ¦": 8018,
      "ĠÌĩêĴ³âĢĭ": 8019,
      "ĠéĸĭåĤ¬": 8020,
      "Ġè¦ª": 8021,
      "Ġíķ": 8022,
      "ãĤĴä¸İ": 8023,
      "æĢĿãģĦãģ¤": 8024,
      "åĽ½å®¶": 8025,
      "ĠBl": 8026,
      "ðŁ¥ºðŁ¥º": 8027,
      "Ġãģ¤ãģ¾ãĤĬ": 8028,
      "ĠçĲĨ": 8029,
      "ãģıãģ¾ãģ§": 8030,
      "ãģ§ãģĻãģ®ãģ§": 8031,
      "åĪ·": 8032,
      "èĩªå®ħ": 8033,
      "ãĥĨãĤ£ãĤ¢": 8034,
      "çł²": 8035,
      "ãĥ¼ãĤ¯ãĥ«": 8036,
      "ðŁĶ¥<": 8037,
      "åĲ«ãĤĢ": 8038,
      "ĠæĪ¦": 8039,
      "ãĤĴæĶ¯": 8040,
      "æĺİãĤīãģĭãģ«": 8041,
      "ject": 8042,
      "ãģ¾ãģĻãģĭ": 8043,
      "ãĥĥãĤµ": 8044,
      "äººãģ«ãģ¯": 8045,
      "ãģķãĤĵãģĬãģ¯ãĤĪãģĨ": 8046,
      "ãģĪãģ¦ãģĦãĤĭ": 8047,
      "åº¦ãģ«": 8048,
      "ãĥ©ãĤ¤ãĤ¹": 8049,
      "ãģĦãģŁãģłãģĦãģ¦": 8050,
      "æĿ¥ãģ¾ãģĹãģŁ": 8051,
      "åĪĩãģ£ãģ¦": 8052,
      "éģĬæĪ¯": 8053,
      "æ¹¿": 8054,
      "ãģķãģĽãģŁ": 8055,
      "çĶ³ãģĹä¸ĬãģĴãģ¾ãģĻ": 8056,
      "åĪºãģķ": 8057,
      "ãĥ¬ãĥ¼ãĤ¹": 8058,
      "ĠçŃ": 8059,
      "æĻĤãĤĪãĤĬ": 8060,
      "è¿Ħ": 8061,
      "åĩºæĿ¥ãģ¦": 8062,
      "é¤ħ": 8063,
      "æĵįä½ľ": 8064,
      "Ġç«ĭ": 8065,
      "34": 8066,
      "ãĤĦãģ¹": 8067,
      "è¦ĭéĢĥ": 8068,
      "ãĥĦãĥ¼ãĥ«": 8069,
      "ãĥĳãĥĥãĤ¯": 8070,
      "çı¾çĬ¶": 8071,
      "ream": 8072,
      "ĠðŁĶ¥": 8073,
      "éģ¸æīĭæ¨©": 8074,
      "ãģªãģķãģĿãģĨ": 8075,
      "å®ľãģĹãģıãģĬé¡ĺãģĦèĩ´ãģĹãģ¾ãģĻ": 8076,
      "ĠæľĢé«ĺæ°Ĺæ¸©": 8077,
      "HD": 8078,
      "ãģ®ãĤ²ãĥ¼ãĥł": 8079,
      "ãĤĭãģĳãģ©": 8080,
      "èĩªä½ľ": 8081,
      "ãĥĩãĥĵãĥ¥ãĥ¼": 8082,
      "èĩªåĪĨãģ«": 8083,
      "ãĤ¸ãĥ£ãĥ³ãĥĹ": 8084,
      "çĭ©": 8085,
      "è»¢çĶŁ": 8086,
      "ä¼¼ãģŁ": 8087,
      "âŃĲï¸ı": 8088,
      "åĭĺéģķãģĦ": 8089,
      "ãĤĦãģĹ": 8090,
      "å¤§æŃĵè¿İ": 8091,
      "ãĤªãĥ¼ãĥ«": 8092,
      "ä½ĵæĵį": 8093,
      "åıĸå¼ķ": 8094,
      "éŁ³ãģĮ": 8095,
      "ãģ§ãģĹãģŁãģŃ": 8096,
      "ä¸»åĤ¬": 8097,
      "éģĬãģ¶": 8098,
      "ĠãĤ³ãĥ©ãĥľ": 8099,
      "Ð¾Ð": 8100,
      "ĠðŁİī": 8101,
      "Ġåķ": 8102,
      "æīĭä¼Ŀ": 8103,
      "æ®Ĭ": 8104,
      "etter": 8105,
      "ãĢĤãĢĤ<": 8106,
      "åħ¥ãĤĮãģŁ": 8107,
      "ãģ§ãģ¯ãģĤãĤĬãģ¾ãģĽãĤĵ": 8108,
      "ãģ¶ãģ¡": 8109,
      "ãĥĽãĥĨãĥ«": 8110,
      "åħ±åĲĮ": 8111,
      "ãĤ¬ãĥģãģ§": 8112,
      "åĬªåĬĽ": 8113,
      "åħ±çĶ£åħļ": 8114,
      "DTM": 8115,
      "Ĥ¬": 8116,
      "ãģĬéħĴ": 8117,
      "ãģ£ãģ¦ãģįãģ¦": 8118,
      "ãģ¤ãĤĪ": 8119,
      "ãģ¤ãĤīãģĦ": 8120,
      "æ§ĺãĢħãģª": 8121,
      "ãģľãĤĵ": 8122,
      "æĽ²ãģĮ": 8123,
      "çµ¶æľĽ": 8124,
      "ðĵĪĴðĵı¸": 8125,
      "æ¢¨": 8126,
      "ĠçĶ·": 8127,
      "ãĤĴä¸Ģ": 8128,
      "ãģĿãģ£ãģ¡": 8129,
      "ç¬ĳãģ£ãģŁ": 8130,
      "ä¸įåı¯": 8131,
      "å¤©ä½¿": 8132,
      "ç¦ıå²¡": 8133,
      "âĿĹâĿĹâĿĹâĿĹâĿĹâĿĹâĿĹâĿĹ": 8134,
      "ãĤ¯ãĥªãĤ¨ãĤ¤ãĤ¿ãĥ¼": 8135,
      "ãģ¨ãģ«ãģĭãģı": 8136,
      "ãģłãģĦãģŁãģĦ": 8137,
      "ãģ£ãģ¦ãģıãĤĮãĤĭ": 8138,
      "ãģ®åĩ": 8139,
      "æķ·": 8140,
      "ãĥ¡ãĥ¼ãĤ«ãĥ¼": 8141,
      "è²«": 8142,
      "ãģİãĤĬ": 8143,
      "ãĥĵãĥĵ": 8144,
      "ãģ¡ãĤĩãģĵ": 8145,
      "çļĨãģķãģ¾": 8146,
      "ãģĬãģĦãģĹãģĦ": 8147,
      "ower": 8148,
      "ãģ¯æĺİæĹ¥": 8149,
      "ãĤīãģĭ": 8150,
      "ãĤĴæį": 8151,
      "ä¹Ļ": 8152,
      "ãĤĤãģĨå°ĳãģĹ": 8153,
      "ä»ĺãģĳãĤĭ": 8154,
      "å¦Ĥ": 8155,
      "ãĤĴæĮ¯": 8156,
      "ĠçĦ¡çĲĨ": 8157,
      "ãĢĤ.:*": 8158,
      "Ġar": 8159,
      "ä¸Ńãģ¯": 8160,
      "ãģĹãģ¾ãģĻãģŃ": 8161,
      "ãĥ¢ãĥĲ": 8162,
      "éģĬãģ³ãģ«æĿ¥ãģ¦": 8163,
      "ãĤīãģ£ãģĹãĤĥãģĦ": 8164,
      "ãĥ¼ãģª": 8165,
      "ãĤĦãĤīãģªãģĦ": 8166,
      "å¸Ŀ": 8167,
      "æ¬§": 8168,
      "ðŁĮ¹": 8169,
      "åħĪè¡Į": 8170,
      "ãģªãģĭãģ£ãģŁãģĭãĤī": 8171,
      "å¸«ãģķãĤĵ": 8172,
      "è¸ıãģ¿": 8173,
      "ãģĦãģĵãģĨ": 8174,
      "æĹ¥å¸¸": 8175,
      "è¨ĵ": 8176,
      "ç´«": 8177,
      "ãĤīãģĦãģ¾ãģĹãģŁ": 8178,
      "Ġæĺ¨": 8179,
      "ãģĨãģĨãģĨãģĨ": 8180,
      "!...": 8181,
      "ãģĺãĤĭ": 8182,
      "åĪĨãģ§": 8183,
      "ãĤµãĥĿãĥ¼ãĥĪ": 8184,
      "çĻºä¿¡": 8185,
      "ĠãĤĦãģ£ãģ±": 8186,
      "ãĥĺãĥ«": 8187,
      "ãģ®åŃĺåľ¨": 8188,
      "å®£è¨Ģ": 8189,
      "Ġone": 8190,
      "ãģıãĤĮãģªãģĦ": 8191,
      "ãģĹãģŁäºº": 8192,
      "ãĤ¯ãĥ¼ãĥĿ": 8193,
      "ãĢĳãĢĮ": 8194,
      "äºĮäºº": 8195,
      "Ġno": 8196,
      "çħĻ": 8197,
      "--------": 8198,
      "å¾®å¦Ļ": 8199,
      ".Â°<": 8200,
      "æ¼ı": 8201,
      "Ġæ¬¡åĽŀ": 8202,
      "å½ĵãģŁãĤĬåīį": 8203,
      "å¾³": 8204,
      "ãĥ³ãĥĪãĥªãĥ¼": 8205,
      "ãĥĬãĥĬ": 8206,
      "è§£éĩĪ": 8207,
      "ock": 8208,
      "Ġåĥķãģ¯": 8209,
      "ç·Ĭå¼µ": 8210,
      "ç¢": 8211,
      "Ġ+": 8212,
      "ĠæĹ©ãģı": 8213,
      "ãģĹãĤĵ": 8214,
      "ãģŁãģĭãģ£ãģŁ": 8215,
      "è³¢": 8216,
      "ãĥĩãĤ¹": 8217,
      "çŁ¥ãģ£ãģŁ": 8218,
      "ãģıãĤīãģĦãģ§": 8219,
      "('": 8220,
      "ãģ®ä»ķäºĭ": 8221,
      "æĹ¥ãģĭãĤī": 8222,
      "Ġæ¥½ãģĹ": 8223,
      "ãģªãĤĵãģ§ãģĻãĤĪ": 8224,
      "ãĥĩãĤ¤": 8225,
      "ãģİãĤħ": 8226,
      "åĮĸãģĹãģŁ": 8227,
      "Ġãĥĺ": 8228,
      "åīįæıĲ": 8229,
      "äºĪç®Ĺ": 8230,
      "åıįçľģ": 8231,
      "éĺ¿": 8232,
      "è¨Ńç½®": 8233,
      "ãģ®åĨį": 8234,
      "æ¡ĪåĨħ": 8235,
      "ople": 8236,
      "ĠâĿ¤": 8237,
      "ros": 8238,
      "ãģĦãĤĴ": 8239,
      "ãģĮéģķãģĨ": 8240,
      "ãĤ¹ãĥ©": 8241,
      "ãĥªãĥ¥": 8242,
      "æİ§": 8243,
      "ãĥĢãĥ¡ãĥ¼ãĤ¸": 8244,
      "ãĤĴæıĲ": 8245,
      "å°ĤçĶ¨": 8246,
      "åįĪå¾Į": 8247,
      "FC": 8248,
      "Splatoon": 8249,
      "ãģĬãģĿ": 8250,
      "çĶŁçī©": 8251,
      "ãĤ½ãĥ¼ãĥī": 8252,
      "æīĢãģ§": 8253,
      "å°ĳå¹´": 8254,
      "å¼ģå½ĵ": 8255,
      "Un": 8256,
      "Ġéģħ": 8257,
      "ĠéĿĴ": 8258,
      "ãĤģãĤīãĤĮãĤĭ": 8259,
      "ãĥĲãĥ¼ãĤ¹": 8260,
      "âĺģ": 8261,
      "ãĥļãĥ¼ãĤ¹": 8262,
      "wwwww": 8263,
      "åħ±éĢļ": 8264,
      "å¡ļ": 8265,
      "Ġ)âķ¯âķ°(": 8266,
      "uest": 8267,
      "ãģĬä¸ĸè©±": 8268,
      "ãģįãĤĬ": 8269,
      "ä»ı": 8270,
      "ãģ£ãģ´": 8271,
      "ðŁĲŁ": 8272,
      "èº«éķ·": 8273,
      "åħĪçĶŁãģ®": 8274,
      "æĪĳãĢħ": 8275,
      "âĻ¥ï¸ı": 8276,
      "(=": 8277,
      "42": 8278,
      "ãģĮé«ĺãģĦ": 8279,
      "åı¶": 8280,
      "ãĤ³ãĥĪ": 8281,
      "ðŁį«": 8282,
      "ç¢ºä¿Ŀ": 8283,
      "æĶ¹å¤ī": 8284,
      "Ġãĥ¯ãĤ¤": 8285,
      "âĹ¢âĹ¤": 8286,
      "bot": 8287,
      "ĠðŁĺ": 8288,
      "ãĤıãģĭãģ£ãģŁ": 8289,
      "ãĤıãģĭãĤĵ": 8290,
      "ãģĦãģ¾ãģĻãģŃ": 8291,
      "æľ¬ãĤĴ": 8292,
      "ðŁĴŃ": 8293,
      "Ġ17": 8294,
      "å¤ļæķ°": 8295,
      "ãģĦãģ§ãģ«": 8296,
      "ãģ¨ãģªãĤĬãģ¾ãģĹãģŁ": 8297,
      "ĠçļĨãģķãĤĵ": 8298,
      "ãĤ®ãĥªãĤ®ãĥª": 8299,
      "88": 8300,
      "PV": 8301,
      "ãĤ¹ãģĮ": 8302,
      "ãĤĦãģŃ": 8303,
      "ãĤ«ãĤ¤": 8304,
      "ãĤ¨ãĤ°": 8305,
      "ãģ©ãģĨãĤĦãģ£ãģ¦": 8306,
      "ãģĺãĤĥãģªãģĦãģĭ": 8307,
      "150": 8308,
      "ĠãģªãģĬ": 8309,
      "ãģ®å½¢": 8310,
      "ãģ®åºĹ": 8311,
      "ãģĮå¢ĹãģĪãĤĭ": 8312,
      "^)<": 8313,
      "Ġãģĺ": 8314,
      "ãĤıãģĽ": 8315,
      "Ġå«": 8316,
      "ãĥīãĤ¢": 8317,
      "èĩªåĪĨãĤĴ": 8318,
      "è¦ĭãģ¦ãĤĤ": 8319,
      "ãĤĴæııãģı": 8320,
      "ãģ®å·®": 8321,
      "ãĤĤãĤĤ": 8322,
      "ãģ§ãģĻãģĭãĤī": 8323,
      "é¨Ļ": 8324,
      "åĩºæĿ¥ãģŁ": 8325,
      "Ġnew": 8326,
      "çĶ»åĥıãĤĴ": 8327,
      "å¿ĺãĤĮãģŁ": 8328,
      "è£½ä½ľ": 8329,
      "æ·±å¤ľ": 8330,
      "ĠæĻĤéĸĵ": 8331,
      "Pro": 8332,
      "ãģĭãģĭ": 8333,
      "ãĢįãĢģ": 8334,
      "ash": 8335,
      "éĿĻå²¡": 8336,
      "ê²": 8337,
      "ãģĬå®¢": 8338,
      "ãĥ¼ãĥ¯": 8339,
      "ãģĶãĤį": 8340,
      "ĠåľŁ": 8341,
      "ä½ķãģ¨ãģĭ": 8342,
      "ãģ¶ãĤĬãģ«": 8343,
      "âĿ¤ï¸ıâĢį": 8344,
      "ãĥ«ãĥ¼": 8345,
      "Ġçª": 8346,
      "ãĢľãĢĤ": 8347,
      "èĥĥ": 8348,
      "ĠãĥĦãĤ¤å»ĥ": 8349,
      "ãģĬå§ī": 8350,
      "ãģĹãģıãģªãĤĭ": 8351,
      "âĹĨ": 8352,
      "Ġç§ģãģĮ": 8353,
      "wwwwwwwwwwwwwwww": 8354,
      "çĸĳåķı": 8355,
      ")(": 8356,
      "ãģ¯çĦ¡ãģĦ": 8357,
      "ãĤıãĤĪ": 8358,
      "ãģķãĤĵãģĬãģ¯ãĤĪ": 8359,
      "å£°åĦª": 8360,
      "Ġãģªãģ«": 8361,
      "ãĤĴæĬ¼": 8362,
      "æ°¸éģł": 8363,
      "ãģłãĤīãģĳ": 8364,
      "\\(": 8365,
      "lv": 8366,
      "vs": 8367,
      "ãģĹãģĻãģİãģ¦": 8368,
      "ãĤģãģ¾ãģĹãģŁ": 8369,
      "ðŁİĦ": 8370,
      "ãĥĳãĤ¿ãĥ¼ãĥ³": 8371,
      "âĻ¬": 8372,
      "ãĥİãĥ³": 8373,
      "ãĥĵãĥĥãĤ¯": 8374,
      "Ġthey": 8375,
      "ãģĭãĤĤãģĹãĤĮãĤĵ": 8376,
      "ĠæĶ¹": 8377,
      "éįĭ": 8378,
      "âŀ": 8379,
      "ãģ®ãģłãģĳãģ©": 8380,
      "ãĤıãĤı": 8381,
      "oug": 8382,
      "éĸ¢ãĤı": 8383,
      "ãģķãĤĮãģ¦ãģĦãģŁ": 8384,
      "éģĵè·¯": 8385,
      "ãģ¨ãģ¯ãģĦãģĪ": 8386,
      "åİŁä½ľ": 8387,
      "ðŁĮ¸ðŁĮ¸": 8388,
      "ãģĿãģĵãģ«": 8389,
      "æľŃå¹Į": 8390,
      "IR": 8391,
      "PU": 8392,
      "ram": 8393,
      "Ġçµµ": 8394,
      "Ġçģ": 8395,
      "å¤§çµ±éłĺ": 8396,
      "å¹´æľ«": 8397,
      "éł»": 8398,
      "ãĤĵãģłãģŃ": 8399,
      "ä¼ļãģ§": 8400,
      "ç·©": 8401,
      "çĽ®ãģ¯": 8402,
      "ãĥĢãĥ«": 8403,
      "è¶ħä¼ļèŃ°": 8404,
      "ãĤ¯ãĥªãĥ¼ãĥł": 8405,
      "åĻĽ": 8406,
      "å¨ģ": 8407,
      "æ¥½ãģĹãģĭãģ£ãģŁãģ§ãģĻ": 8408,
      "ç«¶é¦¬": 8409,
      "ĠãĤ¤ãĥ©ãĤ¹ãĥĪ": 8410,
      "ãĤĦãģ£ãģŁãĤī": 8411,
      "ãģĪãģ£": 8412,
      "ãĤ¨ãĥĥãĥĪ": 8413,
      "åĲįãģ«": 8414,
      "æĬ«éľ²": 8415,
      "Ġ16": 8416,
      "æ±Ĺ": 8417,
      "ĠãģĦãĤį": 8418,
      "èĻİ": 8419,
      "ãģ®æ¼«çĶ»": 8420,
      "ãģ®ãĥĦãĤ¤å»ĥ": 8421,
      "aa": 8422,
      "Ģë": 8423,
      "éĸ£": 8424,
      "ãģ©ãģĨãģĹãĤĪãģĨ": 8425,
      "ãģ²ãģ©": 8426,
      "æĹ¥æľ¬ãģ«": 8427,
      "çĤĬ": 8428,
      "çı¾åľ°": 8429,
      "éĢģæĸĻ": 8430,
      "Ġfeat": 8431,
      "éĽ£æĺĵ": 8432,
      "ãĤĴãģ¤ãģĳãģ¦": 8433,
      "ä¸ĢæĹ¥ãĤĴ": 8434,
      "å¼±ãģĦ": 8435,
      "In": 8436,
      "ãĥĵãĥ«": 8437,
      "éĢŁåº¦": 8438,
      "å¤īãĤıãĤīãģªãģĦ": 8439,
      "åľŁæĽľæĹ¥": 8440,
      "ãĤ¦ãĥ«ãĥĪãĥ©": 8441,
      "ãģĦãģįãģ¾ãģĹãĤĩãģĨ": 8442,
      "Ä±": 8443,
      "çĲĨè«ĸ": 8444,
      "ãĥ©ãĤ¤ãĥĲãĥ¼": 8445,
      "ç´ĦæĿŁ": 8446,
      "ĠãĤ³ãĥŃãĥĬ": 8447,
      "è¨ĢèĳīãĤĴ": 8448,
      "æ»ŀ": 8449,
      "ãģĹãģ¦ãģĦãģįãģ¾ãģĻ": 8450,
      "çŃĭèĤī": 8451,
      "åīĬéĻ¤": 8452,
      "çį²å¾Ĺ": 8453,
      "!(*": 8454,
      "ãģ©ãĤĵ": 8455,
      "å¹´ãģ§": 8456,
      "ãĤ¦ãĥĬ": 8457,
      "èªŃãĤĵãģł": 8458,
      "äºĮåº¦": 8459,
      "å¿ħè¦ģãģª": 8460,
      "åĢ¤æ®µ": 8461,
      "æķĻãģĪãģ¦ãģıãģłãģķãģĦ": 8462,
      "ikTok": 8463,
      "ãĤĴè¨ĺå¿µãģĹãģ¦": 8464,
      "!ãĢĲ": 8465,
      "Ġ......": 8466,
      "ãģĭãģĽ": 8467,
      "ãģ¾ãģ¡": 8468,
      "ãģĮçĻºçĶŁ": 8469,
      "ãģ®å¦": 8470,
      "åĳŁ": 8471,
      "å¸³": 8472,
      "ãĤ¹ãĥļãĤ·ãĥ£ãĥ«": 8473,
      "ãģºãģĵ": 8474,
      "áĦıáĦı": 8475,
      "Web": 8476,
      "ãģ®æĻĤéĸĵ": 8477,
      "ãĥĥãĤ¹": 8478,
      "ãģŃãģ°": 8479,
      "ãĤ·ãĥ³ãĥĹãĥ«": 8480,
      "ãģĴãģ¦": 8481,
      "æł¸": 8482,
      "ãĤ¼ãĥ«ãĥĢ": 8483,
      "èªŀãĤĬ": 8484,
      "ĠWorld": 8485,
      "æ¿¯": 8486,
      "ĠåĨħ": 8487,
      "ãģ»ãģĨãģĮãģĦãģĦ": 8488,
      "åł´åĲĪãģ¯": 8489,
      "Ġç¥Ŀ": 8490,
      "CO": 8491,
      "ðŁĽ": 8492,
      "ãģıãģķãģĦ": 8493,
      "ãģĤãĤĭãģ®ãģ§": 8494,
      "ãĥĨãĥ©": 8495,
      "æ§ĺåŃĲ": 8496,
      "ðŁįµ": 8497,
      "æ²Ļ": 8498,
      "ãĥģãĥ£ãĥ³": 8499,
      "ãģĬãģĬãģĬ": 8500,
      "PayPay": 8501,
      "egends": 8502,
      "§<": 8503,
      "Ïĥ": 8504,
      "ãĢģ<": 8505,
      "ãĢģ...<": 8506,
      "ãĤ«ãĥ¼": 8507,
      "âĸ¼": 8508,
      "çĭĲ": 8509,
      "å£°ãĤĴ": 8510,
      "åı¤ãģĦ": 8511,
      "æ»ĳ": 8512,
      "ãĤĴåıĹãģĳãģ¦": 8513,
      "ãģĹãģ¦ãģĦãģ¦": 8514,
      "è¡ĮãģĳãĤĭ": 8515,
      "åħ¥åĬĽ": 8516,
      "çĽ¸æīĭãģ«": 8517,
      "éĥ½å¸Ĥ": 8518,
      "Ġç¶ļ": 8519,
      "ðŁĴ¢ðŁĴ¢": 8520,
      "04": 8521,
      "ãģ£ãģ¦ãģĹãģ¾ãģĨ": 8522,
      "ãģ¾ãģĹãģŁãģĮ": 8523,
      "ä½ľãĤĮãĤĭ": 8524,
      "ãģłãģĳãģ«": 8525,
      "ä½¿ãģ£ãģŁ": 8526,
      "ãĥĻãĤ¹ãĥĪ": 8527,
      "ĠTV": 8528,
      "éĩįãģŃ": 8529,
      "ðŁĵ¢": 8530,
      "ãĤ©ãĤ©": 8531,
      "^)/<": 8532,
      "åįĪåīį": 8533,
      "ãģ®æµģãĤĮ": 8534,
      "38": 8535,
      "ËĤ": 8536,
      "ìĸ": 8537,
      "ãĤĴç´¹ä»ĭ": 8538,
      "çĽ¾": 8539,
      "æŃĮè©ŀ": 8540,
      "Ġmore": 8541,
      "ãģıãģªãĤĬãģ¾ãģĹãģŁ": 8542,
      "ãĥ¼ãĥŀãĥ¼": 8543,
      "æľĢå¤§ãĥĦãĤ¤ãĥ¼ãĥĪéĸĵéļĶ": 8544,
      "çĤİä¸Ĭ": 8545,
      "ãĤ¸ãĥ£ãĥ¼v": 8546,
      "æľĢå°ıãĥĦãĤ¤ãĥ¼ãĥĪéĸĵéļĶ": 8547,
      "Ġå¹³åĿĩãĥĦãĤ¤ãĥ¼ãĥĪéĸĵéļĶ": 8548,
      "ĠãĥĦãĤ¤å»ĥãĤ¸ãĥ£ãĥ¼v": 8549,
      "ãģ®ãĥĦãĤ¤å»ĥçµĲæŀľ": 8550,
      "Re": 8551,
      "zz": 8552,
      "ãģŁãģĽ": 8553,
      "äººãģĭãĤī": 8554,
      "ĠæĤª": 8555,
      "æīĢãģ®": 8556,
      "ãĤĤãĤīãģĪãĤĭ": 8557,
      "è¨±åı¯": 8558,
      "ĠRTãģĹãģŁæķ°": 8559,
      "ĠãĢĬ": 8560,
      "FT": 8561,
      "ãĥŀãĤ¤ãĤ¯": 8562,
      "è¨Ģãģ£ãģ¦ãģŁ": 8563,
      "ãĥĳãĥĳ": 8564,
      "ãĤ¬ãĤŃ": 8565,
      "éĸ¢æĿ±": 8566,
      "ãĥ³ãĥĹãĥ©": 8567,
      "ä»¥ä¸Ĭãģ®": 8568,
      "è´Ī": 8569,
      "ÍŁ": 8570,
      "ĴĮ": 8571,
      "è¡Įãģĳ": 8572,
      "ãģ®æŀ": 8573,
      "ãģĹãģ¦ãĤĭãģĳãģ©": 8574,
      "ðŁĺŃðŁĺŃðŁĺŃðŁĺŃ": 8575,
      "ãģĨãģ©ãĤĵ": 8576,
      "ãĥĢãĤ¦ãĥ³ãĥŃãĥ¼ãĥī": 8577,
      "åħįè¨±": 8578,
      "ãģŁãģªãģĦ": 8579,
      "ãģĮå¼·": 8580,
      "ãĥŀãĥª": 8581,
      "Ġç¨": 8582,
      "Ġâģ": 8583,
      "è¨ĢãģĪãģ°": 8584,
      "é£½": 8585,
      "ĠÌĬ": 8586,
      "æ²Ī": 8587,
      "ree": 8588,
      "çĿĢãģ¦": 8589,
      "ãģĵãģ¡ãĤīãģ®": 8590,
      "äº¤éĢļ": 8591,
      "ãģķãģĽãģ¦éłĤãģįãģ¾ãģĻ": 8592,
      "ãģ¾ãģ§æ¯İæĹ¥ãĥģãĥ£ãĥ¬ãĥ³ãĤ¸": 8593,
      "âĳħ": 8594,
      "¼ë": 8595,
      "ãĥĳãĥ¯": 8596,
      "âĹ¯": 8597,
      "æºľ": 8598,
      "çĭŃ": 8599,
      "å¤¢ãĤĴ": 8600,
      "ç¾©åĭĻ": 8601,
      "æľĢå¾Įãģ¾ãģ§": 8602,
      "ãģ®åĨħå®¹": 8603,
      "pixiv": 8604,
      "è¹": 8605,
      "ãģĬä¼ĳãģ¿": 8606,
      "åħĨ": 8607,
      "ãģĪãģ£ãģ¡": 8608,
      "ãĤŃãĥ«": 8609,
      "æľĪæĽľæĹ¥": 8610,
      "ãĤ¬ãĥ«": 8611,
      "èº«ãģ«": 8612,
      "ãĥĪãĥ©ãĥ³ãĤ¹": 8613,
      "ãģĶè¦§ãģıãģłãģķãģĦ": 8614,
      "µĲ": 8615,
      "ãģ§å¤§": 8616,
      "ãģĨãĥ¼ãĤĵ": 8617,
      "åĦĢ": 8618,
      "è¬Ŀç½ª": 8619,
      "ĠæĶ¿": 8620,
      "ãĤ¡ãĤ¡ãĤ¡ãĤ¡": 8621,
      "ĠéłŃ": 8622,
      "ĠãģĬåīį": 8623,
      "ãĤĵãģ§ãģĹãĤĩãģĨ": 8624,
      "ðŁįĥ": 8625,
      "âľĭ": 8626,
      "ãģĭãģĹãĤī": 8627,
      "å¿ĻãģĹãģĦ": 8628,
      "Ì¶ÍĪ": 8629,
      "ãĤ³ãĥ¼ãĥĴãĥ¼": 8630,
      "120": 8631,
      "An": 8632,
      "Ġå¦": 8633,
      "Ġâĭ": 8634,
      "ãĥŁãĥª": 8635,
      "æĢ§ãģ®": 8636,
      "ãģ©ãģĨãģªãĤĭ": 8637,
      "åĮĸãģĻãĤĭ": 8638,
      "ool": 8639,
      "ãĤĵãģłãĤįãģĨãģª": 8640,
      "ãģ®å¿ľæı´": 8641,
      "ê³ł": 8642,
      "SH": 8643,
      "ãģ«æ®ĭ": 8644,
      "ãģķãģ¯": 8645,
      "ä»Ļ": 8646,
      "ãģĭãĤīãģª": 8647,
      "Ġæ§ĺ": 8648,
      "any": 8649,
      "ä¿¡éł¼": 8650,
      "ä½ĵãĤĴ": 8651,
      "ãĥķãĤ¡ãĤ¤": 8652,
      "æ³¨çĽ®": 8653,
      "æĦıåĳ³ãģ§": 8654,
      "æ£Ħ": 8655,
      "ĠçĽ´": 8656,
      "400": 8657,
      "Ġäººéĸĵ": 8658,
      "Ġãģļãģ£ãģ¨": 8659,
      "ãģĮæĤª": 8660,
      "ark": 8661,
      "åĥļ": 8662,
      "ãģ®æĸ¹ãĤĤ": 8663,
      "éĢ²æįĹ": 8664,
      "è¦ļæĤŁ": 8665,
      "åĻĮ": 8666,
      "ãĥ¬ãĥ¼ãĤ¿ãĥ¼": 8667,
      "ãĥ¬ãĥĵãĥ¥ãĥ¼": 8668,
      "Ġçī¹ãģ«": 8669,
      "ãĥ¼ãĥľãĥ¼ãĥī": 8670,
      "éľĢè¦ģ": 8671,
      "DA": 8672,
      "ãĥ³ãģ¨": 8673,
      "ãģĿãĤĬãĤĥ": 8674,
      "ãĤįãĥ¼": 8675,
      "ãĥĨãĤ¯": 8676,
      "ãĤĪãĤĬãģ¯": 8677,
      "éĽĨåĽ£": 8678,
      "ĠSp": 8679,
      "ãģ®ãģĬãģĭãģĴãģ§": 8680,
      "èªŃãĤģãĤĭ": 8681,
      "å¦ĸ": 8682,
      "åı¯èĥ½ãģª": 8683,
      "ãĥĥãĤ·ãĥ¥ãĤ¿ãĤ°": 8684,
      "è¬İãģ®": 8685,
      "åĲ«ãĤģãģ¦": 8686,
      "ãģĹãģŁãģ®": 8687,
      "åħ¼": 8688,
      "ãĥªãĥ¼ãĥĪ": 8689,
      "ç¾ħ": 8690,
      "Ġæľī": 8691,
      "ãģ¨ãĤĵãģ§ãĤĤ": 8692,
      "åħİ": 8693,
      "ãĥŃãĤ¦": 8694,
      "å½ĵæĻĤ": 8695,
      "ĠðŁı": 8696,
      "ãĥĹãĥ¬ãĤ¼ãĥ³ãĥĪãĤŃãĥ£ãĥ³ãĥļãĥ¼ãĥ³": 8697,
      "å·¨å¤§": 8698,
      "ãģĦãģįãģŁãģĦ": 8699,
      "ãģ®æ°ĹæĮģãģ¡": 8700,
      "ãģ«åĩºãģ¦": 8701,
      "ãĥ©ãĥ³ãĤ¹": 8702,
      "Ġâ£": 8703,
      "æ´»çĶ¨": 8704,
      "âĪĢãĥ»)": 8705,
      "éł¼ãĤĢ": 8706,
      "è²´éĩį": 8707,
      "ãģĬãĤĤãģĹãĤį": 8708,
      "ãĥ¦ãĥ¼ãĤ¶ãĥ¼": 8709,
      "æŃĮãģĦæīĭãģķãĤĵ": 8710,
      "ãĤ¸ãĥ£ãĥ³ãĥ«": 8711,
      ")/": 8712,
      "ss": 8713,
      "ãģ¯ãģĵãģ®": 8714,
      "ãģįãģŁãĤī": 8715,
      "ãģ®åĸ": 8716,
      "ãĥĨãĤŃ": 8717,
      "è§£éĻ¤": 8718,
      "MS": 8719,
      "ãģĹãģŁãĤĪ": 8720,
      "ãģ®å¡": 8721,
      "ãĤĴæĴ®": 8722,
      "æĸ°ãģŁãģª": 8723,
      "ãģĿãĤĮãģ«": 8724,
      "åĲĮæĻĤ": 8725,
      "Ġå¤§éĺª": 8726,
      "roid": 8727,
      "ãĤĴæııãģĦãģ¦": 8728,
      "ç£¨": 8729,
      "Ńè¼ī": 8730,
      "tif": 8731,
      "ãĤĭãģĹ": 8732,
      "ãģĦãģĦæĦŁãģĺ": 8733,
      "ãĥīãĤ¤ãĥĦ": 8734,
      "æĿ¥ãģªãģĦ": 8735,
      "ãĥľãĤ±": 8736,
      "èĤ¢": 8737,
      "ç²ĭ": 8738,
      "ãĥķãĤ£ãĥ¼ãĥ«": 8739,
      "æĮĩæĳĺ": 8740,
      "åĶĲ": 8741,
      "éģķåĴĮæĦŁ": 8742,
      "ãģĬãģı": 8743,
      "ãģ®åŁº": 8744,
      "ä½ľãĤĬãģ¾ãģĹãģŁ": 8745,
      "æ°Ĺãģ¥ãģĦãģŁ": 8746,
      "ãģ®æĶ¯": 8747,
      "GE": 8748,
      "SE": 8749,
      "bl": 8750,
      "ĠVR": 8751,
      "ãģ¤ãģªãģĮ": 8752,
      "ãģ°ãĤĵ": 8753,
      "ĠÌ«": 8754,
      "åĮ¿åĲį": 8755,
      "ãĤ·ãĥ§ãĥĥãĥĪ": 8756,
      "ãģµãģģ": 8757,
      "æ©Łæ¢°": 8758,
      "ĠãĤ¢ãĥ«": 8759,
      "æŁĶ": 8760,
      "æ¯Ķãģ¹": 8761,
      "çĨĬ": 8762,
      "æ£ĭ": 8763,
      "Ġä»ĬåĽŀãģ®": 8764,
      "39": 8765,
      "Ġ=": 8766,
      "è¦ĭãģ¤": 8767,
      "èĩªè»¢è»Ĭ": 8768,
      "ãĤ±ãĥ¼ãĤ·ãĥ§ãĥ³": 8769,
      "çĽ´ãģĹ": 8770,
      "wwwwww": 8771,
      "ĠPC": 8772,
      "ãĥķãĤ£ãĤ®ãĥ¥ãĤ¢": 8773,
      "ĠÌĨ)": 8774,
      "ãĤĴæĮģãģ¡": 8775,
      "æ¨ªæµľ": 8776,
      "GET": 8777,
      "PO": 8778,
      "Íŀ": 8779,
      "ãģ®ãģĨ": 8780,
      "ãĤĭãģ¨ãģį": 8781,
      "å°ıåŃ¦çĶŁ": 8782,
      "ĠNo": 8783,
      "ãģĤãĤĬãģĮãģ¨ãĥ¼": 8784,
      "ãģ®æĶ¿": 8785,
      "ãģªãģľãģĭ": 8786,
      "ç¶Ļç¶ļ": 8787,
      "Ġé¢¨": 8788,
      "ĠãģĬçĸ²ãĤĮ": 8789,
      "åŃĲãģ¯": 8790,
      "å®Łè³ª": 8791,
      "ãģłãĤĪãģª": 8792,
      "ãĢĩãĢĩ": 8793,
      "ãĤ³ãĤ¹ãĥĹãĥ¬": 8794,
      "ãĥŃãĤ¦ãĤ£ãĥ³": 8795,
      "rd": 8796,
      "ãģ§ãģĶ": 8797,
      "ãĥ¬ãĤ¸ãĤ§": 8798,
      "ãĤ«ãĥ©ãĥ¼": 8799,
      "ãĥŀãĤŃ": 8800,
      "äºĭæĥħ": 8801,
      "äºĭæħĭ": 8802,
      "çī©ãģ¯": 8803,
      "æĻĤéĸĵãģ¯": 8804,
      "ãĥ³ãĥĹãĥ¬": 8805,
      "ðŁĵ£": 8806,
      "é«ĺæł¡çĶŁ": 8807,
      "âĢ¢Ìģ)": 8808,
      "ãĥ²": 8809,
      "ĠçĨ": 8810,
      "æ°ĹãĤĤ": 8811,
      "æĸ¹ãĢħ": 8812,
      "çľº": 8813,
      "ãĤ»ãĥªãĥķ": 8814,
      "ish": 8815,
      "ãĤĭãģ¨ãģĵãĤį": 8816,
      "ãģ£ãģ¦è¨ĢãĤıãĤĮãģ¦": 8817,
      "ãģ£ãģ¦è¨ĢãĤıãĤĮãģŁ": 8818,
      "åħ¨ãģ¦ãģ®": 8819,
      "ç¶ŃæĮģ": 8820,
      "ãģ®ãĤ¤ãĥ©ãĤ¹ãĥĪ": 8821,
      "ãģĬãģĹ": 8822,
      "ãĥĥãĥĨ": 8823,
      "ãģ¨è¨ĢãģĦ": 8824,
      "ãĤĤãĤīãģĨ": 8825,
      "è¬İè§£ãģį": 8826,
      "ĠãĢĤ": 8827,
      "ãģĻãģ§ãģ«": 8828,
      "ãĤĤãģĹãģĭãģĹãģ¦": 8829,
      "å½¡": 8830,
      "ãĤ¹ãĥĪãĥ©": 8831,
      "ç¢ºãģĭ": 8832,
      "ãĤĦãĤĵãģĳ": 8833,
      "ãĤĵãģłãĤĪãģªãģģ": 8834,
      "è¤ĴãĤģãģ¦": 8835,
      "ãģ£ãģĹãĤĩ": 8836,
      "ãģĿãģĨãģłãģĳãģ©": 8837,
      "ãģļãĤĮ": 8838,
      "ãĤ¬ãĤ¹": 8839,
      "è£¸": 8840,
      "ãģ¿ãģŁãģĦãģ§": 8841,
      "ä»ĺãģĦãģ¦": 8842,
      "éģķåıį": 8843,
      "ãĤŃãĥ£ãĥ³ãĥĹ": 8844,
      "æĻĤä»£ãģ«": 8845,
      "ãģŁãģłãģ®": 8846,
      "ãģŁãģłãģĦãģ¾": 8847,
      "ãĤıãģĸãĤıãģĸ": 8848,
      "ãĤĪãĤįãģĹãģĳãĤĮãģ°": 8849,
      "ãģıãģ¦ãĤĤ": 8850,
      "ãĤ¤ãĤ¿": 8851,
      "ãĥ¼ãĥ´": 8852,
      "ãĤ³ãĥ©": 8853,
      "è¦ĭãģĪ": 8854,
      "è©±ãģĻ": 8855,
      "å¾ĮæĤĶ": 8856,
      "ãĥĿãĥ¼ãĤº": 8857,
      "ç©Ĥ": 8858,
      "æĭ¾": 8859,
      "âĻª(*": 8860,
      "âĿ¤ï¸İ": 8861,
      "èī¯ãģĭãģ£ãģŁãģ§ãģĻ": 8862,
      "ãĥģãĤ§ãĥ³": 8863,
      "ãĥ¼ãĥªãĥ³ãĤ°": 8864,
      "å°ĨæĿ¥": 8865,
      "éħ·ãģĦ": 8866,
      "-)": 8867,
      "ãĤĦãĤĮ": 8868,
      "äººéģĶ": 8869,
      "ãĤ³ãĤ¹ãĥĪ": 8870,
      "éħ¬": 8871,
      "ãĥľãĤ¯": 8872,
      "ãĥĿãĤ¹ãĤ¿ãĥ¼": 8873,
      "å¯Ŀãģ¾ãģĻ": 8874,
      "æ¥½ãģĹãģ¿ãģ§ãģĻ": 8875,
      "ðŁĺĩðŁĺĩ": 8876,
      "ãĤ¯ãĥŃãĤ¹": 8877,
      "ãģªãĤĵãģ§ãģĻãģĳãģ©": 8878,
      "ĠÌģâĸ½`*)": 8879,
      "Ġãģ¸": 8880,
      "ãģĹãģ¦ãģ¿ãģ¦": 8881,
      "ory": 8882,
      "å§ĭãģ¾ãģ£ãģŁ": 8883,
      "Ġìŀ": 8884,
      "åĬ©ãģĳãģ¦": 8885,
      "Î¿": 8886,
      "ç¾¨": 8887,
      "ãĤģãģ¦ãģĦãĤĭ": 8888,
      "æŃ»ãĤĵãģł": 8889,
      "è¿Ķäºĭ": 8890,
      "ãĤ¹ãĤ¯ãĤ·ãĥ§": 8891,
      "ãģķãģ¾ãģ§ãģĻ": 8892,
      "æ½ľ": 8893,
      "æ¦Ĥå¿µ": 8894,
      "ĠãĤĤãģ¡ãĤįãĤĵ": 8895,
      "03": 8896,
      "te": 8897,
      "ãģĮåħ¬éĸĭ": 8898,
      "ãĤ«ãĤ¦ãĥ³ãĥĪ": 8899,
      "åĪĨéĩİ": 8900,
      "ãĥıãĥ³": 8901,
      "ç¥ŀç¤¾": 8902,
      "éĩİåħļ": 8903,
      "åı°é¢¨": 8904,
      "ãĤ®ãĥ£ãĥ«": 8905,
      "ãģ¾ãģķãģ«": 8906,
      "ãĥĲãĥĥãĤ¸": 8907,
      "åĩįçµĲ": 8908,
      "Ġè©³": 8909,
      "ĠçµĲå±Ģ": 8910,
      "ãĢĬ": 8911,
      "ãģ£ãģ¦æĢĿãģĨ": 8912,
      "çľŁä¼¼": 8913,
      "çľŁåī£": 8914,
      "ãģĦãģŁãģłãģįãģ¾ãģĻ": 8915,
      "ãģªãģ®ãģ§ãģĻãģĮ": 8916,
      "çī¹å¾´": 8917,
      "Ġwhat": 8918,
      "éģİãģĶãģĹãģıãģłãģķãģĦ": 8919,
      "ãĤĴåħ¬éĸĭãģĹãģ¾ãģĹãģŁ": 8920,
      "ðŁķĬ": 8921,
      "02": 8922,
      "ui": 8923,
      "ãĤĪãģī": 8924,
      "éłĳå¼µãĤĮ": 8925,
      "éĽ»æºĲ": 8926,
      "ãģ¨è¨ĢãĤıãĤĮãģŁ": 8927,
      "BL": 8928,
      "ãģ¯å¤§": 8929,
      "ĠãģĤãĤĵ": 8930,
      "èĪĲ": 8931,
      "èĩªçĶ±ãģ«": 8932,
      "ãģ®åºĥ": 8933,
      "ãģ®å°ĳ": 8934,
      "âĪł)_": 8935,
      "ãĤĬãĥ¼": 8936,
      "ãĤ¤ãĥ³ãĥī": 8937,
      "åł´ãģ§": 8938,
      "å¤±ç¤¼èĩ´ãģĹãģ¾ãģĻ": 8939,
      "ãĥĽãĥŃãĥ©ãĤ¤ãĥĸ": 8940,
      "Ñĥ": 8941,
      "Ġéĸĭ": 8942,
      "ãĤĴé£Łãģ¹": 8943,
      "ãĤ¢ãĤº": 8944,
      "ãģ°ãģ£ãģĭ": 8945,
      "ðŁİ¤": 8946,
      "ĠãģĤãģ¨ãģ¯": 8947,
      "ãĤĤãģ®ãģ§ãģĻ": 8948,
      "ç½°": 8949,
      "ãĤ²ãĥ¼ãĥłãģ®": 8950,
      "ãģ«ãģĬãģĳãĤĭ": 8951,
      "ãĤĴãģĬå¾ħãģ¡": 8952,
      "ðŁĺĦ<": 8953,
      "ãĤ¯ãĤ¿": 8954,
      "æµħ": 8955,
      "åıĸãģ£ãģ¦": 8956,
      "ä¸įè¦ģ": 8957,
      "âĶģâĶģâĶģ": 8958,
      "ãĤĵãĤĦãĤį": 8959,
      "ãģĨãģ¾ãģı": 8960,
      "))<": 8961,
      "Gen": 8962,
      "ãģĬãĥ¼": 8963,
      "ãģĪãĤīãĤĮãĤĭ": 8964,
      "ãĤ·ãĥŃ": 8965,
      "ãģłãģ£ãģŁãģ®ãģĭ": 8966,
      "è³ªåķıãģĮ": 8967,
      "çģ¯": 8968,
      "ãĥ¼ãĥ©ãĥ³ãĥī": 8969,
      "åĬ¹çİĩ": 8970,
      ";`)": 8971,
      "ãģ¾ãģĻãĤĪ": 8972,
      "ãĤ¨ãĥªãĤ¢": 8973,
      "ãĤ½ãĥ³ãĤ°": 8974,
      "æĸĩæĽ¸": 8975,
      "ãģĵãģĵãģ«": 8976,
      "ãĥĿãĤ±ãĥ¢ãĥ³SV": 8977,
      "BI": 8978,
      "UE": 8979,
      "¡æķ£": 8980,
      "ãģĶãģĸãģĦãģ¾ãģĽãĤĵ": 8981,
      "åĪĨæŀĲ": 8982,
      "ãĤªãĥ©": 8983,
      "åħĪçĶŁãģĮ": 8984,
      "ä½ıæ°ĳ": 8985,
      "ãģ®èĬ±": 8986,
      "äºľ": 8987,
      "äººæ¨©": 8988,
      "æĻĤãģ¾ãģ§": 8989,
      "ĠãģĵãĤĵ": 8990,
      "ãĥľãĤ¹": 8991,
      "æķ°åŃĹ": 8992,
      "ãģĦãģ¤ãģ§ãĤĤ": 8993,
      "Ġag": 8994,
      "ä¿ºãĤĤ": 8995,
      "ãģķãĤĮãģŁãģĦ": 8996,
      "ç¿»": 8997,
      "èĭ¦åĬ´": 8998,
      "Ġåįĥ": 8999,
      "Ġå¯Ĵ": 9000,
      "ĠãģĦãģĦãģŃãģĹãģŁæķ°": 9001,
      "Ġqu": 9002,
      "ãģĦãĤīãģ£ãģĹãĤĥ": 9003,
      "ãģįãĤĩãģĨ": 9004,
      "æĻĤåįĬ": 9005,
      "ÏīÎ¦": 9006,
      "æĽ´æĸ°ãģĹãģ¾ãģĹãģŁ": 9007,
      "Dãĥ¢ãĥĩãĥ«": 9008,
      "Vket": 9009,
      "Ĩåĵģ": 9010,
      "ose": 9011,
      "ãģĵãģĦ": 9012,
      "ãĤ¯ãĤªãĥªãĥĨãĤ£": 9013,
      "å¹´åīįãģ®": 9014,
      "åŃĲãģķãĤĵ": 9015,
      "......!": 9016,
      "ãģ©ãģĨãģĹãģ¦": 9017,
      "ä¼ĳæĹ¥": 9018,
      "ãģĹãģŁãģĦãģ§ãģĻ": 9019,
      "ä½Ļè¨Ī": 9020,
      "æĹ¥ãģ®å¤©æ°Ĺ": 9021,
      "Ġ@": 9022,
      "ãĤīãģĹãģı": 9023,
      "ãĥŃãĥª": 9024,
      "åľı": 9025,
      "æĦŁãģĺãģĮ": 9026,
      "èªŀãĤĭ": 9027,
      "é¦´": 9028,
      "å§ĭãĤģãģ¾ãģĹãģŁ": 9029,
      "ðŁĺ¢<": 9030,
      "ä½ķæķħãģĭ": 9031,
      "RA": 9032,
      "ax": 9033,
      "ãģĬãģ°": 9034,
      "ãĤĦãģĮ": 9035,
      "å®ļç¾©": 9036,
      "åĽŀåıİ": 9037,
      "ãĤ¬ãĥ©": 9038,
      "ãģ©ãģĨãģĹãģ¦ãĤĤ": 9039,
      "æīĢå±ŀ": 9040,
      "ãģıãĤīãģĦãģ«": 9041,
[...]
